, 204581
. 170688
the 143974
and 102555
to 83429
of 79259
a 73647
that 64038
i 55966
in 54981
it 52169
you 48558
is 45031
we 44562
&apos;s 39178
this 34417
so 25009
&quot; 23825
they 22321
was 20301
for 20090
on 19790
-- 19757
are 19035
have 18346
what 18304
but 17681
with 16894
can 16276
? 15140
&apos;t 14906
about 14598
there 14517
at 13896
be 13748
as 13507
all 13368
do 12325
not 12266
one 12154
an 12115
&apos;re 11746
my 11501
people 11300
if 10899
like 10800
from 10733
or 10346
he 10022
now 9842
these 9555
just 9310
our 9167
: 8972
when 8747
because 8720
very 8524
ed 8432
me 8333
by 8239
out 8239
how 8081
know 7965
going 7800
up 7743
them 7690
ing 7660
which 7231
more 7205
here 7162
think 7140
had 7037
see 6979
who 6807
your 6780
really 6718
us 6583
get 6555
their 6489
would 6446
were 6368
then 6354
&apos;ve 6209
world 6147
some 6016
time 5996
-@@ 5861
&apos;m 5792
way 5766
actually 5702
has 5673
re@@ 5646
don 5553
into 5531
where 5433
es 5357
things 5243
years 5146
will 5066
other 5005
go 4995
s@@ 4823
no 4814
could 4806
well 4790
make 4674
want 4652
ation 4606
been 4572
s 4544
right 4470
said 4469
something 4320
she 4242
first 4085
those 4076
two 4066
than 4029
thing 4018
t 4016
little 3920
look 3909
new 3885
his 3881
got 3781
also 3747
life 3689
work 3680
say 3632
back 3604
over 3600
; 3583
k@@ 3578
most 3565
much 3562
y 3511
al 3507
only 3413
kind 3380
t@@ 3379
even 3350
e 3349
able 3300
take 3286
un@@ 3250
in@@ 3209
ate 3204
many 3200
need 3195
ted 3191
lot 3172
did 3122
good 3057
around 3047
er 3025
why 3006
down 2948
different 2915
&apos;ll 2866
every 2866
d@@ 2865
through 2860
come 2857
her 2843
day 2805
e@@ 2790
let 2763
y@@ 2753
o@@ 2739
put 2724
g@@ 2719
its 2713
use 2700
being 2657
same 2652
i@@ 2611
doing 2596
ts 2589
n@@ 2579
b@@ 2568
p@@ 2550
ated 2497
en@@ 2497
called 2390
ly 2384
k 2382
three 2367
f@@ 2359
w@@ 2349
d 2348
tion 2345
any 2338
&apos;d 2274
talk 2272
made 2259
st@@ 2248
percent 2245
ti@@ 2240
r@@ 2236
ers 2219
m 2182
after 2179
m@@ 2177
great 2168
today 2164
year 2112
co@@ 2094
di@@ 2093
fact 2076
human 2076
th@@ 2060
ations 2045
li@@ 2045
tell 2044
ds 2041
big 2032
al@@ 2030
se 2027
another 2024
find 2022
p 2019
ro@@ 2000
ent 1980
last 1980
change 1975
ks 1972
ally 1965
idea 1965
l@@ 1952
didn 1947
own 1947
before 1915
started 1912
h@@ 1901
went 1891
should 1884
course 1866
give 1866
thought 1860
red 1849
c 1837
de@@ 1836
off 1831
a@@ 1814
an@@ 1814
important 1805
po@@ 1801
better 1799
system 1798
again 1796
never 1792
story 1785
dis@@ 1780
le@@ 1771
le 1757
ting 1756
u@@ 1755
problem 1750
brain 1745
does 1741
end 1741
might 1737
part 1737
bo@@ 1734
bit 1731
next 1715
together 1715
each 1709
am 1706
start 1701
used 1700
el@@ 1688
show 1682
water 1679
g 1675
ago 1674
place 1673
him 1669
still 1663
v@@ 1655
king 1654
age 1648
technology 1643
man 1642
ad@@ 1635
came 1630
c@@ 1624
ch@@ 1621
ating 1613
&apos; 1611
mean 1596
tions 1593
to@@ 1585
point 1579
se@@ 1578
be@@ 1571
between 1569
ri@@ 1569
si@@ 1549
thank 1535
sh@@ 1533
few 1532
pro@@ 1531
ever 1530
te 1529
looking 1528
sort 1528
ous 1524
too 1521
est 1516
children 1515
long 1515
or@@ 1514
ve 1496
st 1492
maybe 1489
ac@@ 1488
ar@@ 1486
done 1472
whole 1458
as@@ 1451
de 1447
less 1446
doesn 1440
data 1433
found 1431
example 1425
school 1420
question 1417
using 1406
com@@ 1402
real 1402
ding 1397
understand 1379
working 1378
mo@@ 1376
love 1370
n 1368
women 1366
con@@ 1364
try 1364
four 1362
wanted 1354
person 1349
may 1348
ho@@ 1347
pi@@ 1347
ine 1338
live 1336
million 1335
call 1334
trying 1332
ded 1326
power 1320
do@@ 1318
always 1317
ant 1317
design 1315
lo@@ 1313
everything 1311
kids 1304
j@@ 1301
away 1300
en 1294
bu@@ 1285
light 1282
money 1280
10 1278
ter 1275
ses 1269
bi@@ 1264
believe 1262
city 1257
feel 1257
ag@@ 1248
country 1248
five 1242
help 1241
at@@ 1240
space 1237
em@@ 1235
second 1232
information 1226
thinking 1217
ance 1208
z@@ 1207
times 1205
no@@ 1204
number 1203
comes 1200
ma@@ 1198
sense 1189
ty 1186
create 1179
food 1174
getting 1174
took 1174
es@@ 1171
making 1164
on@@ 1157
old 1155
ke 1154
building 1147
future 1147
enough 1144
! 1143
energy 1140
am@@ 1139
means 1139
op@@ 1138
become 1134
science 1134
side 1131
h 1130
hi@@ 1127
w 1126
ence 1124
sion 1123
small 1121
best 1119
probably 1118
quite 1108
interesting 1102
without 1102
stuff 1099
says 1096
me@@ 1095
talking 1093
tr@@ 1091
happened 1090
sing 1090
ans 1088
body 1087
tic 1084
ked 1077
les 1077
play 1077
ves 1073
social 1072
ors 1065
l 1064
der 1060
left 1060
ni@@ 1059
ment 1055
o 1055
er@@ 1051
for@@ 1050
ways 1047
im@@ 1045
dollars 1044
home 1042
coming 1041
ability 1040
ap@@ 1038
sp@@ 1038
ness 1037
room 1037
el 1032
ab@@ 1023
build 1023
ons 1023
pe@@ 1020
anything 1018
ha@@ 1018
fi@@ 1017
set 1015
africa 1012
half 1008
als 1005
th 1002
line 1000
case 998
su@@ 996
ask 993
earth 993
goes 993
pretty 992
move 991
is@@ 988
makes 988
cu@@ 987
gr@@ 985
x 985
b 983
mon@@ 982
while 980
across 977
cr@@ 966
per 966
ps 964
such 964
car@@ 962
happen 962
act 959
it@@ 959
imagine 958
lives 957
once 957
project 957
told 957
simple 955
pu@@ 954
20 953
par@@ 953
ful 952
okay 952
mar@@ 951
seen 950
countries 947
ol@@ 946
moment 944
ones 942
else 941
son 941
car 939
hand 939
men 938
ok 937
saw 937
having 936
health 934
ity 934
living 933
mind 932
yet 932
computer 931
happens 930
basically 924
ra@@ 922
care 921
ary 920
ms 919
learn 914
experience 911
book 910
days 910
ex@@ 909
pa@@ 907
problems 903
so@@ 902
picture 900
high 899
cl@@ 898
global 898
ph@@ 896
ties 896
bad 892
mi@@ 892
later 888
ge@@ 884
ents 881
everybody 881
family 881
asked 880
ideas 876
form 873
hard 872
business 867
pl@@ 867
cells 863
sure 862
art 860
process 859
states 859
both 857
min@@ 857
ic@@ 855
inside 855
sed 852
almost 851
child 851
within 850
ci@@ 846
ne@@ 846
reason 845
young 844
pre@@ 842
over@@ 840
nature 839
top 839
whether 838
vi@@ 835
tive 831
saying 830
history 828
mu@@ 825
guy 824
planet 824
.@@ 823
land 823
six 822
nothing 821
single 817
sub@@ 815
state 812
um 812
far 810
looks 810
read 810
har@@ 809
50 808
billion 807
&amp; 806
keep 806
qu@@ 804
ely 803
remember 803
public 801
0s 800
possible 792
true 792
already 791
war 787
gets 786
often 785
wrong 785
oh 784
per@@ 782
under 780
music 779
ice 777
ir@@ 777
he@@ 776
ement 774
heard 774
cha@@ 773
hope 773
man@@ 772
cancer 771
someone 768
order 766
bring 764
matter 764
led 763
house 761
piece 761
gu@@ 759
isn 759
lu@@ 759
built 757
looked 757
str@@ 757
trans@@ 757
research 755
open 753
yes 752
group 749
bl@@ 747
ative 746
beautiful 746
face 746
united 746
video 746
3@@ 744
30 743
community 743
head 737
instead 737
control 735
education 735
answer 734
et 734
months 734
somebody 733
ur@@ 731
until 730
view 730
works 730
sometimes 729
india 728
ings 728
places 727
since 727
pos@@ 726
br@@ 724
ver@@ 721
ates 718
ess 718
amazing 717
hu@@ 717
ments 717
universe 717
internet 715
taking 714
us@@ 714
couple 709
myself 709
re 709
god 708
level 707
government 706
turn 706
4@@ 702
species 702
stories 702
language 701
ws 700
words 696
au@@ 695
heart 695
stop 695
night 694
gs 692
tri@@ 691
ourselves 688
du@@ 687
inter@@ 687
... 685
des 685
completely 683
itself 683
kinds 683
students 683
turns 683
happy 681
word 681
ch 680
yeah 680
r 677
rather 677
ten@@ 676
run 675
society 675
game 674
middle 674
everyone 673
happening 673
front 672
model 671
though 671
exactly 670
job 670
wasn 670
mother 668
under@@ 667
large 664
ical 663
study 663
minutes 658
ta@@ 654
il@@ 652
became 649
ber@@ 649
company 649
ger 648
lin@@ 648
decided 647
huge 647
fo@@ 645
sa@@ 645
bio@@ 643
share 643
woman 643
bar@@ 642
news 641
america 640
est@@ 640
must 639
third 637
animals 635
disease 634
fl@@ 634
themselves 634
jo@@ 632
hear 631
war@@ 631
ins 629
created 626
fe@@ 626
learned 625
friends 624
name 623
la@@ 621
natural 621
100 620
ot@@ 620
the@@ 620
ge 618
hours 618
sho@@ 615
along 614
5@@ 613
century 613
e-@@ 613
early 613
gh@@ 613
guys 613
ver 613
ure 612
lots 611
worked 611
air 610
questions 610
won 609
tu@@ 608
american 606
perhaps 606
ste@@ 606
ed@@ 603
environment 603
ved 603
area 602
particular 602
ent@@ 601
figure 601
knew 601
&#91; 600
&#93; 600
market 600
ay 599
sha@@ 599
up@@ 599
1@@ 598
ling 598
oil 598
china 597
te@@ 597
others 596
shows 596
based 595
turned 595
moving 591
against 590
gave 590
ker 590
during 587
ter@@ 587
da@@ 586
pri@@ 585
finally 584
learning 584
ants 583
couldn 583
sound 583
machine 581
self-@@ 581
past 580
fish 577
out@@ 576
cor@@ 575
ics 575
least 575
key 574
sin@@ 574
takes 574
ages 573
cell 572
ving 572
thousands 571
gen@@ 570
go@@ 570
ic 570
outside 570
bur@@ 569
cap@@ 569
f 569
phone 568
x@@ 568
ari@@ 567
can@@ 567
culture 567
known 566
19@@ 565
rel@@ 565
scale 565
father 561
wonderful 561
em 559
free 559
difference 557
d-@@ 555
ocean 555
fu@@ 554
ll 554
sive 554
ec@@ 553
ll@@ 553
systems 553
taken 552
entire 548
size 548
close 547
parts 547
mat@@ 546
ze 546
needs 545
seven 545
gi@@ 544
zed 544
sur@@ 542
ters 542
we@@ 542
powerful 541
u 540
wh@@ 540
enti@@ 539
sen@@ 539
given 538
whatever 538
15 535
cur@@ 535
population 535
ying 534
grow 532
ser@@ 532
ground 531
pe 531
terms 531
cost 529
beginning 527
char@@ 527
green 527
ble 526
seeing 526
ca@@ 525
center 525
ns 525
certain 524
sts 524
york 524
behind 523
yourself 523
changed 522
fin@@ 521
ce 518
ming 518
hold 516
mis@@ 516
easy 515
test 515
ar 514
ban@@ 514
ning 514
cities 513
interested 513
y-@@ 513
difficult 512
eyes 512
ou@@ 512
table 511
med 508
media 508
force 507
leave 506
ru@@ 505
began 504
spend 504
wor@@ 503
clo@@ 502
death 502
dec@@ 502
den@@ 502
walk 502
amount 501
audience 501
common 501
stage 501
ator 500
sel@@ 500
economic 499
local 499
ali@@ 498
bri@@ 498
eight 498
parents 498
els 496
av@@ 495
coun@@ 495
lt 495
ats 494
friend 493
la 493
ship 493
ul@@ 493
image 492
rest 492
field 491
ging 491
full 490
inten@@ 490
ned 490
7@@ 489
dro@@ 488
simply 487
books 486
ously 486
team 485
buy 484
deal 484
sions 484
humans 483
tics 483
week 483
6@@ 481
cannot 481
action 480
bor@@ 480
gone 480
ke@@ 480
black 477
super@@ 477
national 475
needed 475
spent 475
born 473
longer 473
gl@@ 471
hands 470
realized 470
ect 469
quickly 469
low 468
my@@ 468
tried 468
value 467
incredible 465
wing 465
forward 464
ping 464
political 464
watch 464
economy 463
paper 463
2 462
companies 462
lost 462
tion@@ 461
and@@ 460
behavior 460
ju@@ 460
por@@ 460
sm 460
step 460
feet 459
street 459
knowledge 458
dna 456
either 456
growth 456
pas@@ 456
sitting 456
ati@@ 455
rec@@ 455
ang@@ 454
surface 454
white 454
blue 453
fr@@ 453
om@@ 453
growing 452
ically 451
opportunity 451
wi@@ 451
/ 449
os@@ 449
micro@@ 448
structure 448
flo@@ 447
met 447
program 447
wouldn 444
complex 443
gar@@ 443
ality 442
40 440
9@@ 440
south 440
et@@ 439
sea 439
8@@ 438
areas 438
reality 438
ad 437
changes 437
oper@@ 437
clear 436
felt 436
nu@@ 436
animal 435
des@@ 435
scientists 435
20@@ 434
dri@@ 434
pay 434
technologies 434
eat 433
u.s. 433
starting 432
ev@@ 431
film 431
fully 431
miles 431
understanding 431
brought 429
poor 429
syn@@ 429
ture 429
weeks 429
ma 427
patients 427
girl 426
die 425
giving 425
loc@@ 425
map 425
tan@@ 425
average 424
cut 424
eng@@ 424
2@@ 423
climate 423
developed 423
pr@@ 423
tools 423
board 420
cat@@ 420
ders 420
anyone 419
attention 419
ces 418
cli@@ 417
fun 417
write 417
auth@@ 415
morning 415
personal 415
dr@@ 414
fer 414
fly 414
gives 414
images 414
fast 413
che@@ 412
pur@@ 412
literally 411
main 411
produce 411
bottom 410
cars 410
equ@@ 410
theory 410
telling 409
physical 408
pres@@ 408
anti@@ 407
feeling 407
forms 407
ther@@ 407
wrote 407
lab 406
qui@@ 406
t-@@ 406
4 405
nice 405
hand@@ 404
ki@@ 403
numbers 403
short 403
patient 402
rate 402
ment@@ 401
quality 401
ast@@ 400
dar@@ 400
head@@ 400
ry 400
cy@@ 399
development 399
ger@@ 399
ory 399
seems 399
af@@ 398
bel@@ 398
of@@ 398
ths 398
individual 397
law 397
playing 397
realize 397
result 397
fied 396
material 396
pen@@ 396
aging 395
box 395
hy@@ 395
medical 395
access 394
air@@ 394
ant@@ 394
ches 394
ens 394
lar@@ 394
running 394
sun 394
tically 394
challenge 393
discovered 393
tation 393
3 392
absolutely 392
allow 392
changing 392
developing 392
ently 392
ket 392
kid 392
mp@@ 392
normal 392
focus 391
ori@@ 391
ve@@ 391
west 391
continu@@ 390
creating 390
gener@@ 389
hun@@ 389
web 388
1 387
ess@@ 387
id 387
millions 387
res@@ 387
speak 387
non-@@ 386
alone 385
source 385
wo@@ 385
12 384
bas@@ 384
hundreds 384
gro@@ 382
sk@@ 381
ain 380
deep 380
fa@@ 380
designed 379
died 379
movement 379
nobody 379
save 379
voice 379
— 379
computers 378
relationship 378
tes 378
wall 378
blood 377
ories 377
dly 376
gre@@ 376
ls 376
pped 376
prin@@ 376
ani@@ 375
pping 375
,000 374
experiment 374
wish 374
her@@ 373
late 373
network 373
shape 373
ecting 372
fri@@ 372
generation 372
knows 372
recently 372
spi@@ 372
revolution 371
bed 370
class 370
industry 370
modern 370
sch@@ 370
199@@ 369
asi@@ 369
especially 369
haven 369
mit 369
obviously 369
showed 369
0,000 368
robot 368
ect@@ 367
english 367
incredibly 367
innovation 367
ted@@ 367
aren 366
cal@@ 366
eg@@ 366
mor@@ 366
solution 366
talked 366
wn 366
product 365
seem 365
support 365
9 364
girls 364
major 364
moved 364
ner@@ 364
soon 364
ber 363
chinese 363
der@@ 363
neuro@@ 363
ah 362
digital 362
stand 362
university 362
begin 361
security 361
anybody 360
north 360
8 359
dy 359
mem@@ 359
type 359
cre@@ 358
eth@@ 358
solve 358
tra@@ 358
contr@@ 357
cool 357
becomes 356
device 356
guess 356
mer 356
mer@@ 356
tional 356
z 356
fear 355
gt 355
likely 355
thro@@ 355
ys 355
bes 354
drive 354
perfect 354
tiny 354
dead 353
happiness 353
issues 353
mental 353
ren@@ 353
writing 353
ators 352
dark 352
don@@ 352
evolution 352
hour 352
impact 352
online 352
pic@@ 352
position 352
ther 352
vers 352
situation 351
tw@@ 351
connected 350
meet 350
reasons 350
ball 349
effect 349
lling 349
grap@@ 348
kin@@ 348
lan@@ 348
25 347
ce@@ 347
dra@@ 347
europe 347
ner 347
psycho@@ 347
available 346
beyond 346
chi@@ 346
cri@@ 346
far@@ 346
games 346
hed 346
inst@@ 346
mission 346
ection 345
lived 345
ric@@ 345
atic 344
compassion 344
cour@@ 344
fir@@ 344
general 344
lines 344
resources 344
stic 344
sym@@ 344
issue 343
star@@ 343
east 342
hor@@ 342
je@@ 342
office 342
plant 342
risk 342
wal@@ 342
6 341
color 341
kers 340
logy 340
materials 340
schools 340
town 340
bigger 339
involved 339
worth 339
bat@@ 338
groups 338
road 338
rules 338
ba@@ 337
ia 337
pictures 337
uses 337
ects 336
iz@@ 336
projects 335
teach 335
dem@@ 334
sil@@ 334
similar 334
exten@@ 333
ing@@ 333
plants 333
present 333
5 332
il 332
scientific 332
sit 331
7 330
baby 330
fre@@ 330
towards 330
ven@@ 330
code 329
ef 329
please 329
putting 329
tical 329
truth 329
tho@@ 328
asking 327
os 327
special 327
tells 327
ace 326
activity 326
carbon 325
cro@@ 325
door 325
hundred 325
mas@@ 325
ton 325
explain 324
fun@@ 324
lls 324
basic 323
ines 323
high-@@ 321
onto 321
predic@@ 321
several 321
stri@@ 321
tt@@ 321
vision 321
break 320
period 320
tor@@ 320
tur@@ 320
anyway 319
chance 319
mb@@ 319
suddenly 319
teachers 319
wind 319
aged 318
cho@@ 318
ck 318
showing 318
solar 318
speed 318
cam@@ 317
ear@@ 317
fall 317
hit 317
particularly 317
provi@@ 317
software 317
ty@@ 317
80 316
choice 316
coll@@ 316
measure 316
sounds 316
ams 315
approach 315
explo@@ 315
nor@@ 315
notice 315
recor@@ 315
tro@@ 315
logical 314
village 314
kes 313
nuclear 313
om 313
student 313
ges 312
han@@ 312
walking 312
60 311
college 311
listen 311
minute 311
month 311
oc@@ 311
roc@@ 311
sent 311
und@@ 311
wants 311
ected 310
fol@@ 310
potential 310
boy 309
democracy 309
strong 309
tre@@ 309
0@@ 308
ched 308
gh 308
indeed 308
lic@@ 308
list 308
positive 308
reach 308
biggest 307
brea@@ 307
fire 307
interest 307
object 307
teacher 307
certainly 306
evidence 306
eye 306
mine 306
plan 306
totally 306
mb 305
shor@@ 305
starts 305
ard 304
deli@@ 304
examples 304
ght 304
port 304
skin 304
everywhere 303
ligh@@ 303
ot 303
pattern 303
acy 302
creative 302
mass 302
medicine 302
sig@@ 302
stay 302
eventually 301
lead 301
add 300
named 300
nine 300
ran@@ 300
back@@ 299
ching 299
ig@@ 299
sal@@ 299
screen 299
sli@@ 299
smart 299
wat@@ 299
wer 299
alized 298
clas@@ 298
consu@@ 298
moral 298
spo@@ 298
tal@@ 298
develop 297
ency 297
hospital 297
whe@@ 297
further 295
google 295
movie 295
pick 295
swe@@ 295
talks 295
bs 294
journey 294
success 294
wait 294
ak 293
bro@@ 293
buildings 293
gas 293
jobs 293
ners 293
ster 293
del@@ 292
favorite 292
lose 292
message 292
organization 292
page 292
ready 292
rus@@ 292
grand@@ 291
cra@@ 290
exciting 290
extraordinary 290
largest 290
mal@@ 290
pain 290
results 290
den 289
flu@@ 289
ft 289
sity 289
18@@ 288
electr@@ 288
international 288
points 287
posed 287
serious 287
essentially 286
grew 286
killed 286
ko@@ 286
among 285
esti@@ 285
extremely 285
hiv 285
lim@@ 285
sco@@ 285
uni@@ 285
foot 284
hal@@ 284
memory 284
send 284
win@@ 284
ow@@ 283
peace 283
vari@@ 283
visual 283
yed 283
drug 282
ey 282
ick 282
usually 282
watching 282
arm 281
camera 281
expect 281
follow 281
liber@@ 281
ped 281
spread 281
tic@@ 281
tend 280
tou@@ 280
wa@@ 280
architecture 279
dic@@ 279
ended 279
foot@@ 279
individuals 279
rich 279
series 279
standing 279
biology 278
fic@@ 278
traditional 278
assu@@ 277
bal@@ 277
leaders 277
older 277
trees 277
und 277
connec@@ 276
crazy 276
drugs 276
except 276
impossible 276
sleep 276
somehow 276
11 275
cause 275
dance 275
models 275
poverty 275
self 275
violence 275
all@@ 274
electricity 274
objects 274
somewhere 274
training 274
vie@@ 274
allowed 273
essed 273
larger 273
men@@ 273
products 273
200 272
ast 272
ben@@ 272
col@@ 272
expensive 272
machines 272
mil@@ 272
sist@@ 272
sy@@ 272
bunch 271
safe 271
studies 271
brains 270
faster 270
ged 270
int@@ 270
lower 270
photograp@@ 270
sorts 270
sou@@ 270
conditions 269
continue 269
ky 269
ol 269
reading 269
response 269
site 269
wife 269
appro@@ 268
inf@@ 268
pieces 268
pt 268
thousand 268
arr@@ 267
emp@@ 267
engineering 267
ery 267
higher 267
mid@@ 267
minds 267
perspective 267
sh 267
square 267
upon 267
ately 266
ational 266
edi@@ 266
na@@ 266
present@@ 266
sc@@ 266
written 266
finding 265
production 265
supposed 265
sw@@ 265
ales 264
bon@@ 264
connect 264
pal@@ 264
500 263
dan@@ 263
fine 263
goal 263
healthy 263
sex 263
sky 263
ss 263
az@@ 262
ini@@ 262
mom 262
sam@@ 262
sup@@ 262
tain 262
wonder@@ 262
african 261
she@@ 261
trust 261
ably 260
above 260
doctor 260
gers 260
including 260
meant 260
military 260
sti@@ 260
taught 260
david 259
ler 259
meaning 259
ony 259
s-@@ 259
sell 259
skills 259
worse 259
hel@@ 258
infor@@ 258
successful 258
version 258
wards 258
dream 257
mic 257
part@@ 257
therefore 257
touch 257
treatment 257
18 256
complicated 256
ef@@ 256
hy 256
interac@@ 256
mobile 256
bodies 255
communities 255
context 255
dist@@ 255
income 255
calcul@@ 254
economi@@ 254
loo@@ 254
ob@@ 254
pes 254
rise 254
role 254
thre@@ 254
tree 254
clu@@ 253
refl@@ 253
seconds 253
shot 253
shown 253
tool 253
truly 253
apo@@ 252
bacteria 252
cru@@ 252
dat@@ 252
excited 252
lat@@ 252
math 252
one-@@ 252
preci@@ 252
wel@@ 252
actual 251
cases 251
content 251
faces 251
func@@ 251
fundamental 251
museum 251
neurons 251
robots 251
smaller 251
tly 251
zero 251
adv@@ 250
cer@@ 250
crisis 250
freedom 250
hon@@ 250
inclu@@ 250
john 250
alive 249
beauty 249
dad 249
ears 249
trac@@ 249
integr@@ 248
kept 248
kill 248
medi@@ 248
recognize 248
scar@@ 248
waste 248
anywhere 247
critical 247
fac@@ 247
fer@@ 247
ill@@ 247
sely 247
teaching 247
0-@@ 246
determin@@ 246
well-@@ 246
combin@@ 245
cop@@ 245
exist 245
exp@@ 245
himself 245
non@@ 245
rou@@ 245
ward 245
active 244
central 244
fantastic 244
service 244
americans 243
bank 243
bre@@ 243
bul@@ 243
concept 243
contribu@@ 243
down@@ 243
earlier 243
increase 243
logist 243
stars 243
treat 243
virus 243
fil@@ 242
throughout 242
weight 242
costs 241
families 241
ha 241
humanity 241
ached 240
era 240
massive 240
o-@@ 240
store 240
three-@@ 240
ures 240
wonder 240
xi@@ 240
although 239
flow 239
journ@@ 239
listening 239
od@@ 239
person@@ 239
range 239
shed 239
solutions 239
tex@@ 239
tv 239
beings 238
decisions 238
effective 238
genes 238
gg@@ 238
price 238
raise 238
slow 238
to-@@ 238
ars 237
aw@@ 237
clearly 237
dog 237
driving 237
fight 237
gly 237
greater 237
ingly 237
ots 237
patterns 237
legal 236
provide 236
re-@@ 236
related 236
u.@@ 236
allows 235
artist 235
ash@@ 235
becoming 235
choose 235
dollar 235
fro@@ 235
human@@ 235
intelligence 235
mel@@ 235
physics 235
plastic 235
ster@@ 235
strange 235
ten 235
consider 234
fy 234
hot 234
lif@@ 234
western 234
after@@ 233
ath@@ 233
ences 233
gotten 233
mp 233
poin@@ 233
press 233
ran 233
specific 233
thanks 233
ung 233
ay@@ 232
connection 232
cultural 232
current 232
date 232
dig@@ 232
famous 232
initi@@ 232
liter@@ 232
mate 232
print 232
progress 232
region 232
sol@@ 232
various 232
cel@@ 231
celebr@@ 231
cold 231
represent@@ 231
surgery 231
two-@@ 231
aid 230
creativity 230
familiar 230
flying 230
mag@@ 230
president 230
san 230
smo@@ 230
song 230
vo@@ 230
conference 229
direction 229
forth 229
hear@@ 229
invented 229
mes 229
pass 229
policy 229
san@@ 229
shar@@ 229
son@@ 229
ust 229
ads 228
draw 228
magic 228
speaking 228
wil@@ 228
demonstr@@ 227
lands 227
nur@@ 227
protect 227
tle 227
ature 226
diversity 226
however 226
institutions 226
park 226
poli@@ 226
scre@@ 226
stick 226
adap@@ 225
clean 225
le-@@ 225
ples 225
regi@@ 225
website 225
cle@@ 224
cul@@ 224
philosoph@@ 224
record 224
sequence 224
speci@@ 224
train 224
v 224
waiting 224
cas@@ 223
dangerous 223
decade 223
fuel 223
glass 223
logists 223
none 223
services 223
stat@@ 223
sun@@ 223
wr@@ 223
ests 222
gan@@ 222
id@@ 222
ism 222
lled 222
performance 222
private 222
religion 222
remarkable 222
shi@@ 222
simul@@ 222
ta 222
unfortunately 222
whose 222
conversation 221
domin@@ 221
greatest 221
mile 221
star 221
urban 221
values 221
anymore 220
ind@@ 220
lie 220
onic 220
pit@@ 220
ports 220
rule 220
term 220
ards 219
eri@@ 219
floor 219
immediately 219
jud@@ 219
levels 219
phones 219
plan@@ 219
politics 219
pull 219
societies 219
tivity 219
babies 218
ese 218
genetic 218
recogni@@ 218
5,000 217
construc@@ 217
hey 217
rights 217
shared 217
temperature 217
track 217
useful 217
boys 216
career 216
diseases 216
function 216
mic@@ 216
motiv@@ 216
multi@@ 216
new@@ 216
party 216
scientist 216
sign 216
understood 216
ur 216
doctors 215
enormous 215
following 215
gri@@ 215
lo 215
meter 215
mot@@ 215
physici@@ 215
sters 215
subject 215
x-@@ 215
aware 214
loved 214
pan@@ 214
some@@ 214
ach 213
ances 213
ases 213
environmental 213
grade 213
police 213
slide 213
types 213
198@@ 212
aries 212
complete 212
final 212
forces 212
hing 212
lab@@ 212
lights 212
stic@@ 212
walked 212
cin@@ 211
effects 211
hole 211
na 211
practice 211
survive 211
tal 211
travel 211
wed 211
aci@@ 210
cent 210
feed 210
gene 210
gui@@ 210
high@@ 210
nation 210
net 210
pun@@ 210
quar@@ 210
trial 210
weren 210
ym@@ 210
ahead 209
ase 209
citizens 209
legs 209
near 209
reli@@ 209
sharing 209
stre@@ 209
trade 209
vent@@ 209
a-@@ 208
agree 208
att@@ 208
bees 208
conflict 208
directly 208
governments 208
laws 208
ley 208
mostly 208
pair 208
possibly 208
row 208
task 208
workers 208
dying 207
eless 207
ghts 207
obvious 207
produced 207
television 207
ained 206
alization 206
below 206
funny 206
inspir@@ 206
instance 206
markets 206
mars 206
meeting 206
original 206
sustainable 206
visi@@ 206
character 205
exist@@ 205
experiments 205
forget 205
industrial 205
invest@@ 205
networks 205
ple 205
sion@@ 205
aids 204
cros@@ 204
geo@@ 204
london 204
ny 204
secret 204
val@@ 204
vol@@ 204
birds 203
cou@@ 203
daughter 203
decision 203
ering 203
financial 203
ken 203
pli@@ 203
recent 203
spending 203
win 203
90 202
ancient 202
appear 202
discover 202
ends 202
ession 202
event 202
ick@@ 202
indian 202
main@@ 202
occu@@ 202
on-@@ 202
plu@@ 202
thetic 202
70 201
ancy 201
arti@@ 201
auto@@ 201
ening 201
insi@@ 201
photograph 201
tem@@ 201
tural 201
biological 200
destro@@ 200
ell@@ 200
mountain 200
path 200
sat 200
search 200
summer 200
terrible 200
ain@@ 199
asp@@ 199
expected 199
ga@@ 199
heat 199
inspired 199
low-@@ 199
offer@@ 199
phi@@ 199
played 199
popular 199
programs 199
acts 198
chair 198
challenges 198
chris 198
commit@@ 198
concer@@ 198
consciousness 198
eating 198
gal@@ 198
pain@@ 198
respon@@ 198
unique 198
bringing 197
chemical 197
conclu@@ 197
da 197
glo@@ 197
meters 197
passion 197
que 197
wit@@ 197
balance 196
bits 196
diagno@@ 196
evolved 196
genome 196
inc@@ 196
ist@@ 196
ok@@ 196
sorry 196
text 196
tors 196
ans@@ 195
blo@@ 195
bought 195
ei@@ 195
ined 195
organisms 195
oxygen 195
pat@@ 195
pin@@ 195
push 195
stor@@ 195
ep 194
fli@@ 194
molecules 194
moon 194
twice 194
artists 193
bill 193
carto@@ 193
cover 193
dest 193
drop 193
helped 193
infrastructure 193
irs 193
island 193
ograp@@ 193
published 193
quick 193
sto@@ 193
streets 193
sum@@ 193
surprising 193
surro@@ 193
tas@@ 193
vel@@ 193
worry 193
ack 192
causes 192
decades 192
divi@@ 192
embr@@ 192
emotional 192
fit 192
focused 192
proc@@ 192
ring 192
vac@@ 192
alist 191
bran@@ 191
communication 191
complexity 191
depen@@ 191
devices 191
dr. 191
green@@ 191
lin 191
pressure 191
prot@@ 191
reduc@@ 191
shel@@ 191
spir@@ 191
standard 191
vering 191
yo@@ 191
$ 190
16 190
agre@@ 190
ail@@ 190
crow@@ 190
designers 190
educ@@ 190
efficient 190
ods 190
purpose 190
sec@@ 190
turning 190
worst 190
300 189
apart 189
birth 189
capital 189
decide 189
mal 189
race 189
sem@@ 189
slightly 189
than@@ 189
activi@@ 188
al-@@ 188
ame@@ 188
conserv@@ 188
etc 188
que@@ 188
reas@@ 188
significant 188
afghanistan 187
degrees 187
essing 187
extra 187
fal@@ 187
glob@@ 187
ide@@ 187
jun@@ 187
mac@@ 187
onal 187
ong 187
refer@@ 187
rely 187
tor 187
zo@@ 187
analy@@ 186
closer 186
din@@ 186
gol@@ 186
len@@ 186
members 186
nations 186
paid 186
supply 186
trouble 186
willing 186
ye@@ 186
zing 186
&apos;@@ 185
10,000 185
atmosphere 185
ght@@ 185
gue 185
mam@@ 185
program@@ 185
straight 185
carry 184
entr@@ 184
foundation 184
law@@ 184
spea@@ 184
stem 184
terrori@@ 184
total 184
tun@@ 184
-year-old 183
alism 183
charge 183
edge 183
explore 183
migr@@ 183
notion 183
pol@@ 183
radio 183
10@@ 182
capacity 182
intui@@ 182
sors 182
tries 182
visu@@ 182
applic@@ 181
arro@@ 181
blind 181
bot@@ 181
broad@@ 181
chan@@ 181
ell 181
helping 181
imagin@@ 181
shift 181
attack 180
civil 180
cont@@ 180
conver@@ 180
forest 180
hearing 180
ours 180
reduce 180
rooms 180
sick 180
sle@@ 180
address 179
broken 179
creates 179
crimin@@ 179
eco@@ 179
ements 179
expl@@ 179
fici@@ 179
indi@@ 179
psy@@ 179
bridge 178
corner 178
eds 178
justice 178
load 178
log@@ 178
mc@@ 178
mir@@ 178
ority 178
rock 178
studying 178
surve@@ 178
terri@@ 178
amaz@@ 177
bru@@ 177
condition 177
interact 177
leg@@ 177
organiz@@ 177
passed 177
trag@@ 177
wis@@ 177
,@@ 176
197@@ 176
achiev@@ 176
achieve 176
ading 176
believ@@ 176
california 176
feels 176
iraq 176
meas@@ 176
obs@@ 176
sens@@ 176
sugg@@ 176
travel@@ 176
virtual 176
algorith@@ 175
ambi@@ 175
ass 175
calls 175
diver@@ 175
electric 175
emer@@ 175
fair 175
nearly 175
pha@@ 175
saving 175
wood 175
accep@@ 174
ami@@ 174
asia 174
basis 174
concep@@ 174
definition 174
differences 174
fold 174
hi 174
knowing 174
mouse 174
organizations 174
plac@@ 174
relationships 174
richard 174
sau@@ 174
seemed 174
stress 174
tary 174
tremendous 174
1.@@ 173
choices 173
dam@@ 173
ered 173
mul@@ 173
musli@@ 173
possibility 173
q@@ 173
rain 173
reco@@ 173
responsibility 173
trained 173
work@@ 173
14 172
accoun@@ 172
atives 172
benefits 172
cen@@ 172
check 172
circu@@ 172
coffee 172
collabor@@ 172
deci@@ 172
easily 172
ested 172
graph 172
hac@@ 172
imagination 172
lies 172
pel@@ 172
proper@@ 172
religious 172
tar@@ 172
tter@@ 172
aching 171
afraid 171
dram@@ 171
eu@@ 171
fortun@@ 171
giant 171
held 171
highly 171
lou@@ 171
noticed 171
poll@@ 171
pounds 171
repe@@ 171
river 171
shing 171
tch 171
thir@@ 171
tissue 171
window 171
2,000 170
academ@@ 170
compar@@ 170
discovery 170
flies 170
hair 170
improve 170
ina 170
join 170
land@@ 170
leading 170
loss 170
ne 170
necessary 170
planets 170
reve@@ 170
soli@@ 170
struc@@ 170
turing 170
year-old 170
antly 169
assem@@ 169
distr@@ 169
expect@@ 169
frequ@@ 169
inj@@ 169
missing 169
ney 169
particles 169
scan@@ 169
sphere 169
stopped 169
tail 169
tru@@ 169
wer@@ 169
zen 169
ale 168
ana 168
appreci@@ 168
attac@@ 168
attemp@@ 168
bird 168
boat 168
break@@ 168
communicate 168
comp@@ 168
engage 168
ff 168
invol@@ 168
kets 168
opportunities 168
recei@@ 168
sites 168
tele@@ 168
wers 168
yellow 168
brings 167
core 167
cos@@ 167
degree 167
dre@@ 167
fairly 167
fix 167
flu 167
ignor@@ 167
landscape 167
mers 167
mix@@ 167
mur@@ 167
sible 167
stand@@ 167
1,000 166
bly 166
cycle 166
dan 166
designer 166
direc@@ 166
engine 166
ere 166
estr@@ 166
fall@@ 166
farmers 166
fur@@ 166
jan@@ 166
mess@@ 166
necessarily 166
neighb@@ 166
painting 166
pon@@ 166
respect 166
shu@@ 166
thy 166
aff@@ 165
answers 165
ato@@ 165
bled 165
gor@@ 165
lucky 165
narr@@ 165
phenomenon 165
return 165
tan 165
teen@@ 165
traffic 165
truc@@ 165
ultimately 165
arily 164
arts 164
colleagues 164
comfortable 164
competition 164
doub@@ 164
ee@@ 164
leads 164
moments 164
pac@@ 164
particip@@ 164
prize 164
produc@@ 164
ray 164
theater 164
thu@@ 164
amp 163
bling 163
communic@@ 163
despite 163
dy@@ 163
figur@@ 163
finished 163
flight 163
gene@@ 163
identi@@ 163
ited 163
japan 163
not@@ 163
passionate 163
profit 163
sand 163
sector 163
typical 163
unded 163
vely 163
aches 162
argu@@ 162
creatures 162
depression 162
experiences 162
ff@@ 162
figured 162
fying 162
mark 162
prison 162
sculp@@ 162
suffering 162
tech 162
ased 161
emotions 161
extr@@ 161
fascinating 161
lic 161
pose 161
profes@@ 161
shares 161
ue 161
accur@@ 160
arian 160
confid@@ 160
counter@@ 160
dimensional 160
elements 160
engineers 160
mechan@@ 160
vot@@ 160
walls 160
yer 160
1,@@ 159
24 159
ail 159
alize 159
card 159
conscious 159
evol@@ 159
fle@@ 159
gan 159
manufac@@ 159
mechanis@@ 159
organic 159
sand@@ 159
sis 159
suf@@ 159
transl@@ 159
wave 159
wild 159
ap 158
apply 158
bomb@@ 158
bud@@ 158
conduc@@ 158
consumption 158
cy 158
events 158
hero@@ 158
impres@@ 158
ld 158
lets 158
negative 158
noise 158
report 158
sold 158
squ@@ 158
steps 158
stone 158
acu@@ 157
brand 157
differently 157
distance 157
facebook 157
fashion 157
forever 157
ful@@ 157
helps 157
holding 157
leaving 157
mathematics 157
profound 157
sm@@ 157
stan@@ 157
tt 157
visit 157
activ@@ 156
adop@@ 156
brilliant 156
cheap 156
concentr@@ 156
det@@ 156
ective 156
effort 156
foreign 156
influence 156
vast 156
ash 155
cle 155
comb@@ 155
extreme 155
hab@@ 155
hopefully 155
identity 155
matters 155
mr. 155
quote 155
red@@ 155
rest@@ 155
robo@@ 155
spec@@ 155
stuck 155
acc@@ 154
ach@@ 154
ades 154
adi@@ 154
base 154
benefit 154
bone 154
capable 154
cent@@ 154
colors 154
crime 154
desert 154
engineer 154
extinc@@ 154
facts 154
gall@@ 154
gun 154
innov@@ 154
nutri@@ 154
pic 154
structures 154
stu@@ 154
-up 153
adults 153
afford 153
begins 153
billions 153
caught 153
childhood 153
civilization 153
corpor@@ 153
corruption 153
emplo@@ 153
f-@@ 153
fication 153
filled 153
importantly 153
invest 153
lea@@ 153
lesson 153
ly@@ 153
lying 153
measu@@ 153
normally 153
oni@@ 153
regul@@ 153
speech 153
tens 153
youn@@ 153
and-@@ 152
anding 152
beat 152
block 152
copy 152
female 152
fields 152
fill 152
guar@@ 152
heads 152
ish 152
moves 152
professor 152
puts 152
sequ@@ 152
throw 152
weapons 152
196@@ 151
ake 151
background 151
comm@@ 151
facili@@ 151
fighting 151
ght-@@ 151
gradu@@ 151
invi@@ 151
magazine 151
otherwise 151
photos 151
ple@@ 151
raised 151
responsible 151
sets 151
stream 151
sudden 151
sy 151
tici@@ 151
wisdom 151
ation@@ 150
ays 150
bread 150
catch 150
creation 150
designing 150
easier 150
french 150
habit@@ 150
occur@@ 150
ong@@ 150
power@@ 150
prepar@@ 150
shouldn 150
small@@ 150
sustain@@ 150
tom 150
transform 150
tting 150
valley 150
verse 150
13 149
advantage 149
ancing 149
coast 149
dou@@ 149
due 149
ems 149
encies 149
feed@@ 149
investment 149
motion 149
oth 149
separ@@ 149
separate 149
statistics 149
studied 149
suit 149
tures 149
volunte@@ 149
ade 148
appeared 148
british 148
deser@@ 148
electro@@ 148
exper@@ 148
factory 148
fail@@ 148
invisible 148
iran 148
laugh@@ 148
nan@@ 148
ought 148
paul 148
puzz@@ 148
rid 148
simpli@@ 148
yp@@ 148
agriculture 147
argument 147
breast 147
commercial 147
duc@@ 147
enjoy 147
european 147
everyday 147
graduate 147
interpre@@ 147
j 147
limited 147
malaria 147
mes@@ 147
opened 147
opposite 147
prototy@@ 147
slowly 147
spaces 147
spirit 147
tin@@ 147
virtu@@ 147
worl@@ 147
ables 146
ced 146
dea@@ 146
ep@@ 146
geni@@ 146
gentlem@@ 146
gry 146
male 146
mates 146
mothers 146
paint 146
perfectly 146
plus 146
port@@ 146
requi@@ 146
soci@@ 146
tiv@@ 146
ai@@ 145
arms 145
circle 145
concerned 145
deeply 145
dry 145
economics 145
edy 145
fif@@ 145
need@@ 145
pengu@@ 145
secre@@ 145
versus 145
wealth 145
zes 145
400 144
acceler@@ 144
acting 144
ai 144
believed 144
bing 144
dres@@ 144
driven 144
efs 144
home@@ 144
incenti@@ 144
molecule 144
photo 144
posi@@ 144
powered 144
professional 144
sum 144
warming 144
affect 143
ands 143
article 143
brother 143
campaign 143
construction 143
department 143
describe 143
distribution 143
dolph@@ 143
ear 143
generate 143
kid@@ 143
majority 143
metry 143
note 143
operating 143
placed 143
poc@@ 143
predict 143
principles 143
protein 143
rele@@ 143
replic@@ 143
ron 143
sister 143
spring 143
station 143
thinks 143
treated 143
voc@@ 143
alities 142
anda 142
blu@@ 142
bus 142
challeng@@ 142
clock 142
compared 142
cooper@@ 142
crip@@ 142
distribu@@ 142
drawing 142
dynamic 142
entirely 142
form@@ 142
infin@@ 142
insects 142
institute 142
languages 142
leadership 142
milli@@ 142
offer 142
principle 142
py 142
stoc@@ 142
universal 142
wide 142
alo@@ 141
arc@@ 141
collective 141
count 141
eli@@ 141
email 141
esses 141
gras@@ 141
investig@@ 141
labor 141
lack 141
mouth 141
names 141
neighborhood 141
nic@@ 141
obser@@ 141
publi@@ 141
secon@@ 141
th-@@ 141
tton 141
tured 141
uring 141
according 140
audi@@ 140
co2 140
desire 140
equal 140
intelligent 140
layer 140
parti@@ 140
pul@@ 140
sa 140
sia 140
zz@@ 140
17 139
apple 139
arch@@ 139
compare 139
dreams 139
ek 139
finger 139
fore@@ 139
fron@@ 139
happi@@ 139
ka 139
keeping 139
lau@@ 139
lay@@ 139
link 139
matic 139
mexico 139
open-@@ 139
opini@@ 139
organized 139
pages 139
rit@@ 139
sexual 139
sic 139
spon@@ 139
therapy 139
tom@@ 139
tric@@ 139
wake 139
wear 139
ah@@ 138
astron@@ 138
church 138
constantly 138
currently 138
disco@@ 138
expres@@ 138
failure 138
fix@@ 138
followed 138
galaxies 138
galaxy 138
harder 138
hate 138
jump 138
mentioned 138
origin@@ 138
play@@ 138
reser@@ 138
respond 138
shoes 138
shop 138
stay@@ 138
surprise 138
toward 138
transform@@ 138
tter 138
washington 138
wearing 138
wow 138
belief 137
bility 137
chec@@ 137
direct 137
esi@@ 137
failed 137
fourth 137
gin 137
hidden 137
independent 137
intervie@@ 137
israel 137
oral 137
ordinary 137
paying 137
pers 137
planning 137
sci@@ 137
seriously 137
signals 137
soil 137
succe@@ 137
vote 137
ags 136
airplane 136
dom 136
ero@@ 136
generations 136
hasn 136
husband 136
interaction 136
opening 136
optimis@@ 136
ore 136
phot@@ 136
plane 136
report@@ 136
resist@@ 136
roll 136
sac@@ 136
soldiers 136
spre@@ 136
tough 136
tumor 136
vir@@ 136
volu@@ 136
weather 136
accu@@ 135
ame 135
bet 135
bloo@@ 135
businesses 135
cape 135
charles 135
colum@@ 135
covered 135
detail 135
george 135
iling 135
invent@@ 135
letter 135
location 135
lon@@ 135
mathemati@@ 135
mit@@ 135
oceans 135
oned 135
practic@@ 135
radi@@ 135
seas@@ 135
ske@@ 135
unless 135
whenever 135
astr@@ 134
atures 134
bar 134
climb@@ 134
damage 134
dinner 134
elec@@ 134
enter@@ 134
exists 134
gra@@ 134
immun@@ 134
ist 134
joy 134
lit 134
ology 134
proj@@ 134
rap@@ 134
represent 134
shif@@ 134
signal 134
temp@@ 134
thri@@ 134
transpar@@ 134
viruses 134
atr@@ 133
character@@ 133
chemistry 133
consist@@ 133
evil 133
ez@@ 133
faith 133
frag@@ 133
hell 133
interface 133
las 133
managed 133
match 133
monit@@ 133
pate 133
see@@ 133
sep@@ 133
sively 133
strategy 133
survival 133
threat 133
tomorrow 133
alists 132
by@@ 132
clinical 132
coal 132
define 132
depend@@ 132
dir@@ 132
equivalent 132
gen 132
ham 132
impro@@ 132
increasingly 132
intern@@ 132
ists 132
library 132
mas 132
meat 132
movies 132
stop@@ 132
switch 132
techni@@ 132
ury 132
vel 132
voices 132
weird 132
argue 131
cloud 131
congr@@ 131
contact 131
debate 131
ential 131
eric 131
fellow 131
married 131
multiple 131
shoul@@ 131
suc@@ 131
thesis 131
vege@@ 131
yesterday 131
15@@ 130
awful 130
britain 130
chr@@ 130
cious 130
classroom 130
closed 130
conf@@ 130
consequences 130
deliver 130
discipl@@ 130
ented 130
gas@@ 130
gather@@ 130
highest 130
incre@@ 130
ine@@ 130
lec@@ 130
list@@ 130
lock 130
metaphor 130
producing 130
rural 130
section 130
spe@@ 130
sul@@ 130
testing 130
ve-@@ 130
whom 130
ack@@ 129
aim 129
cognitive 129
copi@@ 129
dealing 129
epi@@ 129
in-@@ 129
ken@@ 129
lady 129
leg 129
lunch 129
ores 129
reci@@ 129
researchers 129
shapes 129
stron@@ 129
suppose 129
tab@@ 129
trials 129
vehicle 129
described 128
dimensions 128
einstein 128
fish@@ 128
hadn 128
han 128
heli@@ 128
holes 128
negoti@@ 128
sett@@ 128
shoc@@ 128
smar@@ 128
spot 128
uc@@ 128
uries 128
abilities 127
aming 127
avoid 127
electrical 127
enter 127
expression 127
hur@@ 127
hypo@@ 127
invited 127
ite 127
leader 127
master 127
muscle 127
northern 127
surprised 127
worried 127
3d 126
adult 126
artificial 126
associated 126
bac@@ 126
bright 126
care@@ 126
continent 126
contro@@ 126
controlled 126
cortex 126
depres@@ 126
essential 126
experts 126
gling 126
grandmother 126
launched 126
leaves 126
metal 126
micros@@ 126
mini@@ 126
mortality 126
observ@@ 126
pre-@@ 126
prevent 126
random 126
sentence 126
sight 126
stimul@@ 126
thin@@ 126
who@@ 126
100,000 125
account 125
ama 125
avi@@ 125
bles 125
categ@@ 125
caused 125
cian 125
clean@@ 125
dge 125
encour@@ 125
grown 125
heavy 125
hes 125
importance 125
kne@@ 125
lam@@ 125
maps 125
michael 125
read@@ 125
regar@@ 125
sky@@ 125
worldwide 125
00@@ 124
21@@ 124
3,000 124
ble@@ 124
collect 124
connections 124
cultures 124
demand 124
eleph@@ 124
farm 124
feedback 124
folks 124
formed 124
gain 124
hic 124
hol@@ 124
incid@@ 124
indic@@ 124
install@@ 124
instruc@@ 124
lity 124
papers 124
player 124
post-@@ 124
techniques 124
thoughts 124
uri@@ 124
users 124
45 123
appar@@ 123
bab@@ 123
canada 123
capit@@ 123
details 123
double 123
embar@@ 123
emotion 123
enjo@@ 123
fell 123
homes 123
implic@@ 123
inv@@ 123
keys 123
mad@@ 123
mation 123
molecular 123
nervous 123
players 123
prof@@ 123
roughly 123
seat 123
sor@@ 123
specifically 123
spectrum 123
stun@@ 123
zer@@ 123
accident 122
alternative 122
anti-@@ 122
apped 122
chemicals 122
democr@@ 122
encing 122
experienced 122
houses 122
hyper@@ 122
life@@ 122
los 122
losing 122
ops 122
percei@@ 122
pleasure 122
proud 122
sad@@ 122
sar@@ 122
setting 122
smell 122
technical 122
tles 122
toi@@ 122
toni@@ 122
underneath 122
van@@ 122
violent 122
advanced 121
aining 121
announ@@ 121
atten@@ 121
budget 121
chain 121
daily 121
deb@@ 121
democratic 121
eding 121
entertain@@ 121
estab@@ 121
ets 121
explor@@ 121
histori@@ 121
honest 121
japanese 121
killing 121
letters 121
modi@@ 121
motor 121
mountains 121
pole 121
pra@@ 121
relevant 121
remote 121
sad 121
ships 121
struggle 121
studio 121
suggests 121
telesco@@ 121
20th 120
abstr@@ 120
adverti@@ 120
agu@@ 120
ancest@@ 120
army 120
cards 120
chap@@ 120
const@@ 120
dots 120
exchange 120
finish 120
fort 120
gift 120
gold 120
grand 120
imag@@ 120
influ@@ 120
ink 120
intellectual 120
kenya 120
manipul@@ 120
minister 120
occ@@ 120
ols 120
oning 120
orders 120
property 120
regular 120
scene 120
ser 120
test@@ 120
waves 120
yle 120
ath 119
battery 119
bear 119
bush 119
comput@@ 119
cope 119
dom@@ 119
ember 119
empty 119
england 119
equipment 119
er-@@ 119
evolutionary 119
four@@ 119
harvard 119
lessons 119
meaning@@ 119
mos@@ 119
popul@@ 119
pregn@@ 119
reaction 119
scal@@ 119
scen@@ 119
shir@@ 119
spac@@ 119
steel 119
swit@@ 119
twitter 119
wars 119
angle 118
aps 118
arrived 118
berg 118
breath 118
considered 118
cure 118
di 118
dif@@ 118
dinosaurs 118
disaster 118
express 118
foun@@ 118
fundament@@ 118
gam@@ 118
int 118
invention 118
lumin@@ 118
method 118
offic@@ 118
prime 118
productive 118
prove 118
radical 118
rais@@ 118
recy@@ 118
resource 118
round 118
safety 118
saved 118
sl@@ 118
solved 118
tain@@ 118
wings 118
yers 118
35 117
ace@@ 117
clou@@ 117
document@@ 117
driver 117
efficiency 117
existence 117
feelings 117
ham@@ 117
instru@@ 117
jum@@ 117
liked 117
pleas@@ 117
py@@ 117
serve 117
status 117
steri@@ 117
sub-@@ 117
tax@@ 117
ven 117
whereas 117
absolute 116
apar@@ 116
atically 116
beach 116
carefully 116
curious 116
definitely 116
emissions 116
epidemic 116
fail 116
forced 116
frank@@ 116
identify 116
lap@@ 116
lifetime 116
lowing 116
marine 116
near@@ 116
organs 116
plant@@ 116
platform 116
processes 116
rob@@ 116
satur@@ 116
sla@@ 116
strategi@@ 116
target 116
tum 116
valuable 116
via 116
wire 116
aling 115
architect 115
ball@@ 115
camp 115
characters 115
defined 115
emerging 115
facing 115
frame 115
gap 115
generally 115
glam@@ 115
govern@@ 115
hero 115
james 115
king@@ 115
long-term 115
mathematical 115
mill@@ 115
pet 115
practical 115
shap@@ 115
sides 115
sources 115
swi@@ 115
swim@@ 115
symbo@@ 115
variety 115
zone 115
150 114
actions 114
affected 114
arri@@ 114
auton@@ 114
bed@@ 114
ca 114
calling 114
coral 114
craft 114
def@@ 114
ech@@ 114
fat 114
fem@@ 114
fewer 114
flat 114
francisco 114
fru@@ 114
fund 114
hall 114
heav@@ 114
ize 114
kilometers 114
nec@@ 114
picked 114
possibilities 114
radiation 114
rare 114
rates 114
restaurant 114
steve 114
tane@@ 114
titude 114
transformation 114
vill@@ 114
- 113
anz@@ 113
athy 113
attrac@@ 113
bia 113
birth@@ 113
box@@ 113
brown 113
buying 113
christi@@ 113
click 113
convinced 113
diet 113
drink 113
earth@@ 113
ecosystem 113
effectively 113
fla@@ 113
goods 113
inner 113
kno@@ 113
logic 113
low@@ 113
magnetic 113
partici@@ 113
partner 113
perception 113
plate 113
scri@@ 113
selling 113
stood 113
tel@@ 113
trat@@ 113
trip 113
wher@@ 113
accid@@ 112
addition 112
aded 112
ains 112
aliz@@ 112
analysis 112
aten 112
custom@@ 112
darwin 112
display 112
instrument 112
laptop 112
management 112
miss 112
pack@@ 112
plays 112
quest 112
realiz@@ 112
represents 112
suggest 112
thers 112
tively 112
tons 112
transition 112
wired 112
abo@@ 111
accept 111
appear@@ 111
appropriate 111
archi@@ 111
awareness 111
cat 111
centers 111
esting 111
explains 111
gravity 111
honor 111
hydrogen 111
introduced 111
invent 111
jer@@ 111
ladies 111
mention 111
photographs 111
requires 111
resp@@ 111
rup@@ 111
silk 111
strength 111
style 111
tail@@ 111
unch 111
unds 111
unusual 111
warm 111
was@@ 111
atoms 110
axis 110
bottle 110
compe@@ 110
distinc@@ 110
dogs 110
emerg@@ 110
entreprene@@ 110
garden 110
histor@@ 110
illness 110
kitchen 110
mum 110
musici@@ 110
nasa 110
net@@ 110
nigeria 110
opy 110
primary 110
privi@@ 110
relatively 110
runs 110
situations 110
sugar 110
tains 110
teeth 110
tradition 110
twe@@ 110
typically 110
videos 110
winter 110
2008 109
appears 109
australia 109
ax@@ 109
broke 109
buil@@ 109
components 109
conventi@@ 109
credit 109
cross 109
factor 109
healthcare 109
hospitals 109
hou@@ 109
jac@@ 109
marketing 109
naturally 109
ras@@ 109
replace 109
robert 109
sav@@ 109
shall 109
sharks 109
spar@@ 109
spoke 109
stair@@ 109
treat@@ 109
trick 109
unlike 109
wee@@ 109
actors 108
analo@@ 108
applied 108
atory 108
auti@@ 108
ballo@@ 108
bang 108
battle 108
capture 108
carrying 108
co 108
computing 108
deeper 108
emo@@ 108
esia 108
exercise 108
goals 108
hit@@ 108
imp@@ 108
mix 108
newspaper 108
noon 108
rational 108
refu@@ 108
require 108
ride 108
ridi@@ 108
roads 108
roots 108
sensitive 108
solving 108
stupid 108
thomas 108
tment 108
user 108
van 108
17@@ 107
ak@@ 107
an-@@ 107
breaking 107
chicken 107
chip 107
coc@@ 107
collaboration 107
convince 107
dies 107
dor@@ 107
finance 107
fresh 107
gd@@ 107
gli@@ 107
horse 107
inti@@ 107
liz@@ 107
lum 107
macy 107
medium 107
nam@@ 107
patent 107
poetry 107
prepared 107
promise 107
rapidly 107
roman@@ 107
sending 107
support@@ 107
tras@@ 107
writ@@ 107
00,000 106
99 106
added 106
behaviors 106
bubble 106
cameras 106
discus@@ 106
dish 106
drin@@ 106
eastern 106
ector 106
estimate 106
former 106
holds 106
increasing 106
key@@ 106
liquid 106
mains 106
off@@ 106
previous 106
protected 106
release 106
rene@@ 106
risks 106
search@@ 106
the-@@ 106
transportation 106
trillion 106
union 106
verage 106
victims 106
vulnerable 106
watched 106
wid@@ 106
wikipedia 106
afric@@ 105
anger 105
ba 105
ban 105
bic@@ 105
bit@@ 105
compli@@ 105
correc@@ 105
dered 105
desig@@ 105
diplo@@ 105
director 105
dynam@@ 105
encourage 105
end@@ 105
ength 105
gulf 105
haw@@ 105
humor 105
introduce 105
isl@@ 105
kill@@ 105
las@@ 105
legi@@ 105
member 105
mirror 105
movements 105
nor 105
performing 105
prison@@ 105
received 105
rescu@@ 105
rever@@ 105
sees 105
technological 105
theme 105
tric 105
windows 105
wine 105
600 104
75 104
actor 104
blocks 104
brothers 104
christ@@ 104
collapse 104
collection 104
docu@@ 104
drag@@ 104
election 104
employees 104
flowers 104
hurt 104
improv@@ 104
ingredi@@ 104
mad 104
makers 104
manage 104
marke@@ 104
marriage 104
obj@@ 104
orch@@ 104
ore@@ 104
pacific 104
protection 104
remain@@ 104
reward 104
ski@@ 104
skill 104
stery 104
tate 104
teri@@ 104
venture 104
web@@ 104
writer 104
ander@@ 103
associ@@ 103
bil@@ 103
brazil 103
contain@@ 103
cooking 103
excep@@ 103
germany 103
grid 103
house@@ 103
igh@@ 103
mistakes 103
personally 103
poor@@ 103
pop 103
prim@@ 103
pus 103
reven@@ 103
ri 103
satellite 103
senses 103
stro@@ 103
subst@@ 103
unit 103
vibr@@ 103
wirel@@ 103
wise 103
195@@ 102
aj@@ 102
ange 102
arab 102
astonis@@ 102
behavi@@ 102
bus@@ 102
compl@@ 102
crash 102
cutting 102
detec@@ 102
discussion 102
environments 102
gence 102
gency 102
hot@@ 102
ii 102
infected 102
innovative 102
mber 102
of-@@ 102
paradig@@ 102
paraly@@ 102
peak 102
percentage 102
perform 102
predat@@ 102
religi@@ 102
remin@@ 102
sophisticated 102
tape 102
taste 102
thes 102
tionary 102
toxi@@ 102
u.k. 102
ultimate 102
ush 102
2000 101
amed 101
amoun@@ 101
bike 101
boun@@ 101
cer 101
con 101
correct 101
defense 101
descri@@ 101
destruction 101
develop@@ 101
execu@@ 101
explanation 101
factors 101
fishing 101
fossil 101
gover@@ 101
ill 101
institution 101
last@@ 101
medic@@ 101
metho@@ 101
musical 101
politicians 101
preser@@ 101
proteins 101
revolu@@ 101
southern 101
string 101
sunlight 101
surgeon 101
tious 101
toler@@ 101
vered 101
veri@@ 101
za 101
asks 100
burning 100
cing 100
circumstances 100
commun@@ 100
creature 100
depends 100
diagr@@ 100
educational 100
entrepreneurs 100
eping 100
exploration 100
falling 100
full@@ 100
hom@@ 100
ight 100
interests 100
keeps 100
larg@@ 100
lor@@ 100
lows 100
mistake 100
notes 100
organism 100
our@@ 100
outcome 100
oxide 100
pack 100
parall@@ 100
pollution 100
presence 100
promis@@ 100
relative 100
roof 100
spect 100
syst@@ 100
tables 100
vehic@@ 100
visible 100
0 99
absor@@ 99
ate@@ 99
bag 99
band 99
bay 99
blog 99
carri@@ 99
competi@@ 99
funding 99
gate 99
harv@@ 99
hits 99
hotel 99
ich 99
ids 99
inher@@ 99
lati@@ 99
manag@@ 99
open@@ 99
planes 99
plo@@ 99
quan@@ 99
rab@@ 99
rea 99
story@@ 99
archit@@ 98
boston 98
burn 98
chimp@@ 98
cles 98
file 98
ices 98
laboratory 98
lem@@ 98
maker 98
pho@@ 98
plas@@ 98
propor@@ 98
reali@@ 98
reti@@ 98
staf@@ 98
tempor@@ 98
ager 97
bin@@ 97
consider@@ 97
cular 97
dep@@ 97
ee 97
ele@@ 97
fast@@ 97
films 97
gay 97
greg@@ 97
hum@@ 97
islam 97
mili@@ 97
n. 97
nit@@ 97
phenomen@@ 97
physic@@ 97
reac@@ 97
tests 97
youtube 97
administr@@ 96
atri@@ 96
beli@@ 96
correspon@@ 96
dings 96
grate@@ 96
ino 96
interven@@ 96
phy@@ 96
prob@@ 96
progr@@ 96
proto@@ 96
rase 96
reg@@ 96
sir 96
va 96
water@@ 96
abul@@ 95
channel 95
colli@@ 95
compu@@ 95
conflic@@ 95
fascin@@ 95
glu@@ 95
good@@ 95
ir 95
lish 95
lot@@ 95
onics 95
potenti@@ 95
sn@@ 95
tam@@ 95
tap@@ 95
ustr@@ 95
wol@@ 95
cast 94
esh 94
focu@@ 94
gest@@ 94
gps 94
gun@@ 94
inal 94
pa 94
queen 94
sign@@ 94
yo 94
2.@@ 93
2007 93
21 93
bo 93
chicago 93
dedic@@ 93
elev@@ 93
enced 93
eso@@ 93
hood 93
increas@@ 93
jects 93
limit@@ 93
mari@@ 93
sons 93
ud@@ 93
ves@@ 93
yl@@ 93
2010 92
anced 92
conveni@@ 92
coordin@@ 92
deni@@ 92
dur@@ 92
eden 92
eness 92
ever@@ 92
luc@@ 92
opi@@ 92
resili@@ 92
resolu@@ 92
tie 92
tual 92
.com 91
anis@@ 91
astero@@ 91
c. 91
clip 91
exhibi@@ 91
frustr@@ 91
ils 91
kel@@ 91
lus 91
mean@@ 91
navi@@ 91
nel@@ 91
perman@@ 91
ros@@ 91
signific@@ 91
anc@@ 90
constr@@ 90
convers@@ 90
corn 90
curio@@ 90
destin@@ 90
error 90
expan@@ 90
expon@@ 90
fel@@ 90
ford 90
gle 90
iphone 90
kar@@ 90
pros@@ 90
sahar@@ 90
ti 90
ac 89
appe@@ 89
black@@ 89
brow@@ 89
collap@@ 89
constitu@@ 89
excu@@ 89
experiment@@ 89
infl@@ 89
moder@@ 89
multi-@@ 89
piano 89
post 89
rami@@ 89
ried 89
thou@@ 89
aper 88
bun@@ 88
cil 88
elimin@@ 88
eral 88
iting 88
lion 88
moun@@ 88
pay@@ 88
sab@@ 88
scrat@@ 88
surpri@@ 88
tus 88
arabi@@ 87
barri@@ 87
conv@@ 87
ins@@ 87
k-@@ 87
lar 87
orit@@ 87
oxy@@ 87
phili@@ 87
pion@@ 87
pir@@ 87
tery 87
tradi@@ 87
you@@ 87
14@@ 86
bage 86
blog@@ 86
certain@@ 86
curr@@ 86
dle 86
ental 86
fit@@ 86
frac@@ 86
horrible 86
jes@@ 86
lun@@ 86
tops 86
tribu@@ 86
2005 85
alg@@ 85
bacteri@@ 85
bert 85
compon@@ 85
excel@@ 85
fat@@ 85
gon@@ 85
gres@@ 85
hait@@ 85
insur@@ 85
itu@@ 85
polio 85
tran@@ 85
tube 85
bal 84
concre@@ 84
controver@@ 84
dable 84
desper@@ 84
infec@@ 84
mm 84
neutr@@ 84
oniz@@ 84
paris 84
perform@@ 84
recep@@ 84
strug@@ 84
ton@@ 84
ya 84
200@@ 83
acces@@ 83
aco@@ 83
ae 83
blan@@ 83
bucks 83
color@@ 83
comple@@ 83
de-@@ 83
dun@@ 83
enc@@ 83
frank 83
ita 83
logi@@ 83
miser@@ 83
pakist@@ 83
underst@@ 83
year-@@ 83
16@@ 82
amic 82
ause 82
automa@@ 82
cardi@@ 82
colo@@ 82
ense 82
exci@@ 82
hydro@@ 82
interest@@ 82
ki 82
mo 82
obama 82
peter 82
repu@@ 82
sue 82
aims 81
citiz@@ 81
co-@@ 81
doc@@ 81
estion 81
fam@@ 81
fe 81
goo@@ 81
lad@@ 81
memori@@ 81
proced@@ 81
recom@@ 81
simpl@@ 81
tac@@ 81
zi@@ 81
adic@@ 80
boo@@ 80
dense 80
emis@@ 80
enem@@ 80
err@@ 80
fair@@ 80
gos 80
jef@@ 80
juli@@ 80
metr@@ 80
orient@@ 80
ota 80
rapi@@ 80
real@@ 80
sic@@ 80
sical 80
2004 79
22 79
abri@@ 79
aces 79
aqu@@ 79
bell 79
civi@@ 79
fen@@ 79
independ@@ 79
les@@ 79
mary 79
mun@@ 79
mut@@ 79
neur@@ 79
nin@@ 79
silicon 79
want@@ 79
yi@@ 79
2009 78
ane 78
aver@@ 78
band@@ 78
bee@@ 78
ben 78
coo@@ 78
differ@@ 78
genu@@ 78
rar@@ 78
ual 78
devast@@ 77
divide 77
hen@@ 77
ja@@ 77
jack 77
kins 77
metabo@@ 77
partic@@ 77
polar 77
polic@@ 77
post@@ 77
preced@@ 77
suici@@ 77
una 77
usual 77
vulner@@ 77
ye 77
95 76
architec@@ 76
defin@@ 76
exc@@ 76
extern@@ 76
fav@@ 76
gul@@ 76
health@@ 76
ku@@ 76
od 76
sabi@@ 76
simi@@ 76
sin 76
soft 76
suffer@@ 76
tar 76
texas 76
tian 76
tory 76
19 75
27 75
a.@@ 75
addres@@ 75
agricul@@ 75
ald 75
aus@@ 75
aves 75
civiliz@@ 75
club 75
contempor@@ 75
descrip@@ 75
fan 75
ficial 75
gment@@ 75
ji@@ 75
lle@@ 75
manif@@ 75
persu@@ 75
stanford 75
super 75
sus 75
tea 75
tes@@ 75
tori@@ 75
agenda 74
ames 74
bol 74
cast@@ 74
chocolate 74
clin@@ 74
coloni@@ 74
evalu@@ 74
film@@ 74
hardware 74
indus@@ 74
inspi@@ 74
nai@@ 74
ra 74
satis@@ 74
tis 74
vas@@ 74
yn@@ 74
candi@@ 73
gates 73
grad@@ 73
ideal 73
itual 73
maxi@@ 73
mayor 73
mou@@ 73
ographic 73
origami 73
ough 73
palest@@ 73
trau@@ 73
trop@@ 73
vin@@ 73
wea@@ 73
00 72
65 72
abund@@ 72
ander 72
antici@@ 72
bers 72
chim@@ 72
compos@@ 72
deep@@ 72
degrad@@ 72
eles 72
gin@@ 72
great@@ 72
institu@@ 72
m. 72
martin 72
may@@ 72
microsoft 72
obst@@ 72
ooh 72
opar@@ 72
produ@@ 72
remar@@ 72
ret@@ 72
ris@@ 72
sey 72
spr@@ 72
uganda 72
vil 72
wash@@ 72
what@@ 72
whit@@ 72
willi@@ 72
agi@@ 71
coca@@ 71
congo 71
dor 71
fran@@ 71
gent@@ 71
gible 71
manhattan 71
nat@@ 71
op 71
pad 71
resol@@ 71
reson@@ 71
tica 71
transmit@@ 71
trou@@ 71
viol@@ 71
2003 70
cab@@ 70
commer@@ 70
defen@@ 70
diam@@ 70
dimen@@ 70
discu@@ 70
ester 70
facial 70
fic 70
free@@ 70
ga 70
heal@@ 70
neighbor@@ 70
nobel 70
plat@@ 70
resid@@ 70
sexu@@ 70
strai@@ 70
25@@ 69
32 69
aspir@@ 69
contin@@ 69
cost@@ 69
exhi@@ 69
geographic 69
higgs 69
immedi@@ 69
jim 69
ko 69
obes@@ 69
public@@ 69
quisi@@ 69
quit@@ 69
rer 69
run@@ 69
scho@@ 69
sovi@@ 69
tra 69
viral 69
2006 68
centr@@ 68
ctu@@ 68
dict@@ 68
ecosy@@ 68
eve 68
federal 68
ghana 68
gir@@ 68
gur@@ 68
ides 68
lee 68
long-@@ 68
manu@@ 68
mol@@ 68
nel 68
oun@@ 68
pandem@@ 68
perio@@ 68
questi@@ 68
26 67
alzheimer 67
ater 67
bloc@@ 67
buc@@ 67
consume 67
dh 67
exam@@ 67
hori@@ 67
infr@@ 67
nov@@ 67
prefer@@ 67
til@@ 67
transforma@@ 67
univer@@ 67
viet@@ 67
vor@@ 67
with@@ 67
2001 66
addi@@ 66
alex@@ 66
aro@@ 66
bec@@ 66
bf 66
dear 66
deri@@ 66
expedi@@ 66
golf 66
hs 66
interrup@@ 66
intri@@ 66
pollu@@ 66
trad@@ 66
ultra@@ 66
acular 65
adam 65
aim@@ 65
cei@@ 65
colleagu@@ 65
dam 65
decep@@ 65
diabetes 65
difficul@@ 65
erg@@ 65
genoci@@ 65
geri@@ 65
howard 65
israel@@ 65
laun@@ 65
nia 65
oxford 65
s. 65
scr@@ 65
ts@@ 65
vagina 65
vital 65
cir@@ 64
consci@@ 64
daugh@@ 64
esis 64
glaci@@ 64
hip@@ 64
idi@@ 64
inevitable 64
mach@@ 64
ora 64
past@@ 64
ply 64
premi@@ 64
prosper@@ 64
rin@@ 64
sex@@ 64
si 64
sour@@ 64
stitu@@ 64
sw 64
syl@@ 64
temper@@ 64
tiles 64
un 64
universi@@ 64
vertical 64
vio@@ 64
anim@@ 63
api@@ 63
ario 63
art@@ 63
dal@@ 63
erry 63
expen@@ 63
fres@@ 63
frontal 63
gn@@ 63
grab@@ 63
hollywood 63
horri@@ 63
lear@@ 63
lions 63
long@@ 63
mi 63
pad@@ 63
ram@@ 63
republi@@ 63
sor 63
surge@@ 63
top@@ 63
traj@@ 63
va@@ 63
vis@@ 63
23 62
800 62
brian 62
clar@@ 62
class@@ 62
condi@@ 62
contamin@@ 62
crucial 62
florida 62
forma@@ 62
fortunately 62
got@@ 62
gust@@ 62
ise 62
mani@@ 62
soc@@ 62
suspen@@ 62
tali@@ 62
actu@@ 61
bi 61
credi@@ 61
enz@@ 61
extre@@ 61
flexible 61
fra@@ 61
hall@@ 61
ica 61
intr@@ 61
introduc@@ 61
moore 61
mption 61
opera 61
pep@@ 61
perpe@@ 61
sacri@@ 61
sales 61
sim@@ 61
stal@@ 61
success@@ 61
vic@@ 61
ado@@ 60
agr@@ 60
ardo 60
artic@@ 60
asion@@ 60
au 60
blogs 60
cambridge 60
chips 60
clic@@ 60
creati@@ 60
ectively 60
exclu@@ 60
experimental 60
imit@@ 60
indu@@ 60
ior 60
levi@@ 60
magn@@ 60
optimi@@ 60
rb 60
relati@@ 60
research@@ 60
rio 60
smith 60
statistic@@ 60
stom@@ 60
tis@@ 60
250 59
aband@@ 59
angio@@ 59
bli@@ 59
compani@@ 59
empi@@ 59
engine@@ 59
ety 59
gore 59
hai 59
hier@@ 59
hosti@@ 59
hus@@ 59
jos@@ 59
metap@@ 59
poten@@ 59
titu@@ 59
xim@@ 59
3.@@ 58
47 58
cable 58
consul@@ 58
drome 58
itali@@ 58
legisl@@ 58
oli@@ 58
ous@@ 58
priori@@ 58
promo@@ 58
radic@@ 58
restric@@ 58
sanit@@ 58
steph@@ 58
steven 58
tin 58
usted 58
weal@@ 58
admi@@ 57
altern@@ 57
appli@@ 57
audio 57
avo@@ 57
bra 57
circ@@ 57
detail@@ 57
dev@@ 57
distingu@@ 57
favor 57
inging 57
jug@@ 57
kev@@ 57
pot@@ 57
refriger@@ 57
stati@@ 57
tony 57
ura 57
veter@@ 57
yel@@ 57
2,@@ 56
28 56
85 56
ano 56
atar 56
bronx 56
ceo 56
circul@@ 56
dopam@@ 56
elem@@ 56
experi@@ 56
ghtly 56
invasi@@ 56
kb 56
logr@@ 56
lowed 56
percep@@ 56
pie 56
piz@@ 56
primi@@ 56
priv@@ 56
q 56
ren 56
retro@@ 56
ssi@@ 56
territ@@ 56
terror 56
utili@@ 56
victi@@ 56
ville 56
vivi@@ 56
wright 56
1960 55
700 55
aria 55
ata 55
bob 55
cau@@ 55
caus@@ 55
clear@@ 55
dad@@ 55
danger@@ 55
dru@@ 55
henry 55
kable 55
nific@@ 55
quot@@ 55
teach@@ 55
termin@@ 55
tsunami 55
tu 55
2011 54
ala 54
ave 54
banglad@@ 54
bos@@ 54
contradic@@ 54
dani@@ 54
enci@@ 54
interv@@ 54
kills 54
neander@@ 54
pm 54
ust@@ 54
ada 53
adolesc@@ 53
alcoho@@ 53
benjam@@ 53
certi@@ 53
environ@@ 53
grati@@ 53
homo 53
ign 53
implement@@ 53
individu@@ 53
kit@@ 53
lincoln 53
magne@@ 53
mali@@ 53
memes 53
nolog@@ 53
oms 53
pedi@@ 53
peri@@ 53
previ@@ 53
ron@@ 53
ses@@ 53
tumor@@ 53
ular 53
andrew 52
aun@@ 52
bol@@ 52
crit@@ 52
ecu@@ 52
eda 52
eleg@@ 52
enten@@ 52
esc@@ 52
fertiliz@@ 52
impul@@ 52
jazz 52
justi@@ 52
leon@@ 52
model@@ 52
quito 52
restaur@@ 52
santa 52
ttle 52
urban@@ 52
valu@@ 52
yem@@ 52
yorker 52
120 51
2002 51
a. 51
akes 51
ares 51
aten@@ 51
basi@@ 51
bble 51
bili@@ 51
chri@@ 51
conci@@ 51
esp@@ 51
gran@@ 51
ie 51
ipo@@ 51
jor@@ 51
pies 51
reactor 51
sal 51
29 50
abra@@ 50
beauti@@ 50
bir@@ 50
calcu@@ 50
ject 50
johnson 50
jon@@ 50
logo 50
matri@@ 50
nigeri@@ 50
ox@@ 50
panel 50
plane@@ 50
res 50
wri@@ 50
yan 50
48 49
any@@ 49
asy 49
aving 49
carbon@@ 49
conductor 49
econo@@ 49
ene 49
ester@@ 49
fes@@ 49
inevi@@ 49
jen@@ 49
jo 49
kilo@@ 49
mand@@ 49
neu@@ 49
propag@@ 49
resi@@ 49
sust@@ 49
tiz@@ 49
whi@@ 49
33 48
36 48
ale@@ 48
ania 48
biom@@ 48
ego 48
enemi@@ 48
eres 48
extraordin@@ 48
fashi@@ 48
gger 48
ici@@ 48
interior 48
knowle@@ 48
libr@@ 48
numer@@ 48
raci@@ 48
sen 48
sensi@@ 48
soldi@@ 48
there@@ 48
tox@@ 48
abili@@ 47
earli@@ 47
esto@@ 47
fant@@ 47
geor@@ 47
him@@ 47
ind 47
insec@@ 47
manual 47
margin@@ 47
medicin@@ 47
nar@@ 47
protec@@ 47
succ@@ 47
alu@@ 46
anno@@ 46
austr@@ 46
gases 46
haz@@ 46
homo@@ 46
kee@@ 46
lan 46
prev@@ 46
techn@@ 46
caf@@ 45
campa@@ 45
comi@@ 45
configur@@ 45
conven@@ 45
defini@@ 45
dot@@ 45
ece 45
epidem@@ 45
eting 45
founda@@ 45
gil@@ 45
gravi@@ 45
grow@@ 45
horizon@@ 45
impl@@ 45
jar@@ 45
ministr@@ 45
mov@@ 45
penetr@@ 45
seg@@ 45
them@@ 45
transport@@ 45
trav@@ 45
vali@@ 45
vo 45
world@@ 45
adver@@ 44
ady 44
chur@@ 44
ital 44
know@@ 44
magi@@ 44
meg@@ 44
mor 44
remot@@ 44
sale 44
sole@@ 44
surviv@@ 44
abe@@ 43
ampli@@ 43
che 43
chem@@ 43
declar@@ 43
espe@@ 43
essor 43
inde@@ 43
inver@@ 43
med@@ 43
mula 43
olina 43
presu@@ 43
problem@@ 43
seem@@ 43
sof@@ 43
yn 43
cong@@ 42
cultiv@@ 42
descen@@ 42
dul@@ 42
ema 42
industri@@ 42
lands@@ 42
proce@@ 42
rep@@ 42
tern@@ 42
usa 42
aero@@ 41
anci@@ 41
cep@@ 41
chemi@@ 41
contem@@ 41
dia 41
elabor@@ 41
emi@@ 41
exag@@ 41
patri@@ 41
perf@@ 41
po 41
selves 41
sever@@ 41
transfer@@ 41
venti@@ 41
+ 40
advant@@ 40
amp@@ 40
corrup@@ 40
dest@@ 40
disa@@ 40
ferti@@ 40
grave 40
infer@@ 40
ith 40
ities 40
labor@@ 40
mbur@@ 40
nes 40
ow 40
pedia 40
petr@@ 40
quid 40
recur@@ 40
revel@@ 40
satisfac@@ 40
tent@@ 40
testi@@ 40
ador 39
aire 39
alia 39
arm@@ 39
competen@@ 39
compromi@@ 39
ea 39
ena 39
enorm@@ 39
expli@@ 39
intro@@ 39
mos 39
oblig@@ 39
pau@@ 39
satelli@@ 39
veni@@ 39
year@@ 39
anta 38
atl@@ 38
bill@@ 38
cari@@ 38
cia 38
confer@@ 38
ez 38
hope@@ 38
incorpor@@ 38
jam@@ 38
liar 38
lib@@ 38
lig@@ 38
minu@@ 38
mosquitos 38
pati@@ 38
patr@@ 38
prote@@ 38
regu@@ 38
ror 38
seri@@ 38
spen@@ 38
achi@@ 37
atu@@ 37
cables 37
cogni@@ 37
cola 37
contex@@ 37
dow@@ 37
ela 37
equi@@ 37
flexi@@ 37
fossi@@ 37
implant@@ 37
ino@@ 37
leo 37
neg@@ 37
oce@@ 37
ousness 37
resear@@ 37
sequences 37
tana 37
velo@@ 37
ado 36
adul@@ 36
astic 36
codi@@ 36
fric@@ 36
gia 36
gru@@ 36
hem@@ 36
inci@@ 36
john@@ 36
jur@@ 36
materi@@ 36
moso@@ 36
politici@@ 36
proces@@ 36
senti@@ 36
sibility 36
urs 36
yu@@ 36
é 36
abu@@ 35
act@@ 35
ara 35
ardu@@ 35
atur@@ 35
braz@@ 35
circum@@ 35
corri@@ 35
destruc@@ 35
erra 35
fabric@@ 35
fin 35
finis@@ 35
pens@@ 35
rough@@ 35
secu@@ 35
vas 35
victori@@ 35
alter@@ 34
aque 34
brilli@@ 34
cad@@ 34
demos 34
disper@@ 34
ectiv@@ 34
eses 34
explan@@ 34
figh@@ 34
fon@@ 34
lev@@ 34
llo 34
mobi@@ 34
ni 34
ond 34
redu@@ 34
serv@@ 34
tedx@@ 34
ancestr@@ 33
cha 33
convinc@@ 33
dar 33
dice 33
eff@@ 33
effici@@ 33
envi@@ 33
gar 33
gues 33
illa 33
incu@@ 33
minist@@ 33
pag@@ 33
pes@@ 33
pier@@ 33
sands 33
tall@@ 33
through@@ 33
transi@@ 33
aur@@ 32
begin@@ 32
beha@@ 32
brit@@ 32
casu@@ 32
dispar@@ 32
ima 32
iness 32
lowers 32
maj@@ 32
notic@@ 32
opti@@ 32
prac@@ 32
preten@@ 32
quer@@ 32
scienti@@ 32
solo 32
tales 32
traf@@ 32
well@@ 32
ape@@ 31
complic@@ 31
cultur@@ 31
easi@@ 31
habili@@ 31
har 31
mar 31
muse@@ 31
onia 31
pan 31
perspec@@ 31
probable 31
provo@@ 31
respir@@ 31
sias@@ 31
som@@ 31
tely 31
vels 31
apag@@ 30
arena 30
atmo@@ 30
benefici@@ 30
biolog@@ 30
busin@@ 30
child@@ 30
formul@@ 30
mics 30
retr@@ 30
ro 30
tel 30
tty 30
ab 29
abi@@ 29
ami 29
appropri@@ 29
cali@@ 29
chil@@ 29
equili@@ 29
evid@@ 29
examin@@ 29
fically 29
franci@@ 29
gig@@ 29
hospit@@ 29
issu@@ 29
lli@@ 29
llywood 29
resul@@ 29
revi@@ 29
wha@@ 29
yor@@ 29
anas 28
capaci@@ 28
carb@@ 28
devel@@ 28
doll@@ 28
east@@ 28
evi@@ 28
exerci@@ 28
hundre@@ 28
inas 28
magaz@@ 28
paki@@ 28
paradi@@ 28
passion@@ 28
presid@@ 28
ques 28
rat@@ 28
ross 28
technologi@@ 28
tuber@@ 28
volun@@ 28
atori@@ 27
bel 27
cere@@ 27
dden 27
detect@@ 27
ej@@ 27
escap@@ 27
extra@@ 27
improvis@@ 27
ingeni@@ 27
jar 27
mort@@ 27
natur@@ 27
principal 27
provoc@@ 27
sali@@ 27
tro 27
uck 27
wall@@ 27
adel@@ 26
bron@@ 26
camp@@ 26
cerebral 26
chu@@ 26
com 26
compro@@ 26
del 26
escal@@ 26
evolu@@ 26
financi@@ 26
futur@@ 26
inos 26
mus@@ 26
preserv@@ 26
pron@@ 26
relev@@ 26
ston 26
tot@@ 26
wester@@ 26
accor@@ 25
aron 25
egi@@ 25
elli@@ 25
eron 25
fan@@ 25
ffe@@ 25
ima@@ 25
itely 25
lav@@ 25
mites 25
nac@@ 25
sibilities 25
simil@@ 25
tish 25
tremend@@ 25
utiliz@@ 25
vag@@ 25
americ@@ 24
blic@@ 24
electri@@ 24
eo 24
eros 24
firm@@ 24
ja 24
jaz@@ 24
jour@@ 24
lagos 24
mama 24
marri@@ 24
mist@@ 24
mite 24
mosquit@@ 24
perfor@@ 24
plic@@ 24
rought 24
sent@@ 24
sional 24
technolog@@ 24
train@@ 24
zona 24
é@@ 24
aba 23
conce@@ 23
conden@@ 23
demo@@ 23
ella 23
hap@@ 23
intellec@@ 23
ira@@ 23
jan 23
lem 23
mance 23
other@@ 23
resour@@ 23
superior 23
tality 23
wiki@@ 23
adol@@ 22
bail@@ 22
digit@@ 22
earing 22
ement@@ 22
eth 22
fas@@ 22
grou@@ 22
hosp@@ 22
met@@ 22
mutu@@ 22
ona 22
sta 22
stru@@ 22
techno@@ 22
tir@@ 22
vide@@ 22
.u@@ 21
amen@@ 21
ariz@@ 21
cally 21
canal 21
chin@@ 21
costa 21
dios 21
dol@@ 21
env@@ 21
ero 21
europe@@ 21
imperi@@ 21
k. 21
ordin@@ 21
poe@@ 21
salv@@ 21
tril@@ 21
ud 21
unas 21
ano@@ 20
avail@@ 20
awar@@ 20
bom@@ 20
chen 20
craz@@ 20
das 20
elas 20
employe@@ 20
ete 20
europa 20
exi@@ 20
geno@@ 20
introdu@@ 20
kilos 20
lesi@@ 20
mont@@ 20
onas 20
oul@@ 20
plato 20
terr@@ 20
tray@@ 20
unity 20
ywood 20
benef@@ 19
denomin@@ 19
energ@@ 19
ington 19
let@@ 19
line@@ 19
merc@@ 19
nove@@ 19
ose 19
otec@@ 19
r. 19
rid@@ 19
sati@@ 19
sica 19
socie@@ 19
stupi@@ 19
twit@@ 19
wom@@ 19
won@@ 19
ato 18
bern@@ 18
cid@@ 18
condu@@ 18
curi@@ 18
dos 18
eces 18
hay@@ 18
lla 18
mec@@ 18
ogr@@ 18
patter@@ 18
refle@@ 18
remo@@ 18
repres@@ 18
urity 18
uro@@ 18
zo 18
= 17
alf@@ 17
ante 17
auto 17
cas 17
cial 17
diz@@ 17
echo 17
enas 17
fed@@ 17
gus@@ 17
intel@@ 17
kil@@ 17
lag@@ 17
most@@ 17
nad@@ 17
nas 17
ning@@ 17
psi@@ 17
quick@@ 17
raz@@ 17
ree 17
refi@@ 17
rir 17
sophi@@ 17
viv@@ 17
weir@@ 17
zon@@ 17
arios 16
ced@@ 16
comfort@@ 16
conten@@ 16
dop@@ 16
dw@@ 16
esar 16
face@@ 16
filtr@@ 16
gando 16
glad@@ 16
ily 16
import@@ 16
inici@@ 16
lleg@@ 16
marco 16
neces@@ 16
pien@@ 16
posite 16
prohi@@ 16
safe@@ 16
# 15
aco 15
bai@@ 15
bases 15
desi@@ 15
detr@@ 15
edes 15
famili@@ 15
favor@@ 15
gery 15
intellig@@ 15
je 15
mately 15
menti@@ 15
nerv@@ 15
organ@@ 15
osa@@ 15
ov@@ 15
practi@@ 15
pren@@ 15
sat@@ 15
sibly 15
sol 15
vien@@ 15
vul@@ 15
… 15
% 14
) 14
000 14
amb@@ 14
ascen@@ 14
coffe@@ 14
cum@@ 14
depar@@ 14
fort@@ 14
grandi@@ 14
has@@ 14
inferior 14
infrastruc@@ 14
lik@@ 14
lle 14
lum@@ 14
mely 14
ould 14
por 14
registr@@ 14
rique@@ 14
sear@@ 14
solu@@ 14
sten@@ 14
án 14
accel@@ 13
acel@@ 13
acher 13
ando 13
aposi@@ 13
barr@@ 13
cant@@ 13
cele@@ 13
chic@@ 13
come@@ 13
depart@@ 13
dyn@@ 13
enza 13
etas 13
exterior 13
fo 13
fren@@ 13
graf@@ 13
hay 13
informa@@ 13
intelli@@ 13
intu@@ 13
noti@@ 13
omin@@ 13
pos 13
renov@@ 13
sala 13
situ@@ 13
soy 13
stances 13
sud@@ 13
tech@@ 13
tend@@ 13
uel@@ 13
uno 13
zap@@ 13
ö@@ 13
@ 12
andre@@ 12
apos@@ 12
asa 12
autos 12
caric@@ 12
chang@@ 12
diag@@ 12
disposi@@ 12
eno@@ 12
ento 12
ern 12
icul@@ 12
joh@@ 12
km 12
nun@@ 12
pap@@ 12
perten@@ 12
plica 12
pone 12
pover@@ 12
resu@@ 12
rey 12
sophistic@@ 12
stry 12
teria 12
toman 12
tos 12
weapon@@ 12
abor@@ 11
ador@@ 11
aught 11
bras 11
chocol@@ 11
colle@@ 11
consi@@ 11
constru@@ 11
descar@@ 11
dise@@ 11
domini@@ 11
eno 11
esto 11
fantas@@ 11
ibu@@ 11
lares 11
oci@@ 11
oma 11
prest@@ 11
superfici@@ 11
tero 11
vern@@ 11
windo@@ 11
è@@ 11
– 11
abr@@ 10
acer@@ 10
altos 10
anos 10
ase@@ 10
bien@@ 10
brill@@ 10
brio 10
diabe@@ 10
dirigi@@ 10
ech 10
enta 10
esa 10
essenti@@ 10
euro@@ 10
fiel@@ 10
herr@@ 10
how@@ 10
illas 10
ingr@@ 10
isra@@ 10
lead@@ 10
meth@@ 10
metro 10
norm@@ 10
ocul@@ 10
oria 10
oso 10
par 10
rico 10
rum@@ 10
siles 10
sir@@ 10
tec@@ 10
tera 10
tol@@ 10
use@@ 10
zar 10
ü@@ 10
abandon@@ 9
aja 9
alto 9
amos 9
arias 9
az 9
aza 9
bots 9
call@@ 9
cargo 9
cono@@ 9
dez 9
ello 9
enda 9
equival@@ 9
erci@@ 9
hind 9
io 9
mir 9
ocu@@ 9
paci@@ 9
pand@@ 9
princip@@ 9
reuni@@ 9
rode@@ 9
ré@@ 9
sean 9
sici@@ 9
slow@@ 9
strat@@ 9
stud@@ 9
tivi@@ 9
tram@@ 9
unci@@ 9
vos 9
vu@@ 9
yen 9
yos 9
your@@ 9
zos 9
--@@ 8
acor@@ 8
adem@@ 8
agua 8
angi@@ 8
apy 8
arse 8
ater@@ 8
azo 8
carac@@ 8
confi@@ 8
despi@@ 8
edo 8
eras 8
feel@@ 8
figu@@ 8
ghan@@ 8
gratu@@ 8
grit@@ 8
happ@@ 8
maestro 8
mascul@@ 8
matr@@ 8
nadi@@ 8
numb@@ 8
onio 8
onis@@ 8
peda@@ 8
percent@@ 8
permit@@ 8
philoso@@ 8
pose@@ 8
residu@@ 8
sili@@ 8
sistema 8
tant@@ 8
tivo 8
vi 8
vive 8
volunt@@ 8
yor 8
_ 7
amor@@ 7
aste 7
asu@@ 7
bici@@ 7
cho 7
cil@@ 7
consecu@@ 7
cti@@ 7
dé@@ 7
elo 7
encia 7
enge 7
entren@@ 7
eti@@ 7
etr@@ 7
feli@@ 7
fij@@ 7
graci@@ 7
hist@@ 7
ilu@@ 7
istan 7
langu@@ 7
logos 7
osa 7
ote 7
otr@@ 7
puerto 7
quiz@@ 7
sable 7
televi@@ 7
tien@@ 7
til 7
video@@ 7
ä@@ 7
( 6
^ 6
afi@@ 6
alum@@ 6
amer@@ 6
anterior 6
anza 6
aper@@ 6
apro@@ 6
aun 6
auto-@@ 6
beau@@ 6
boca 6
buenos 6
caj@@ 6
casa 6
cel 6
ende 6
endo 6
entre 6
flori@@ 6
increment@@ 6
mapa 6
mathem@@ 6
mbr@@ 6
mech@@ 6
much@@ 6
orio 6
oxi@@ 6
paral@@ 6
persona 6
poni@@ 6
primer 6
punta 6
raid 6
recuper@@ 6
rodi@@ 6
rom@@ 6
sco 6
ste 6
vesti@@ 6
zas 6
ã@@ 6
ç@@ 6
ón 6
alma 5
arle 5
atac@@ 5
ayer 5
bos 5
canti@@ 5
carr@@ 5
chas 5
degre@@ 5
enes 5
esper@@ 5
esta 5
explic@@ 5
fines 5
gast@@ 5
itas 5
jus@@ 5
llu@@ 5
lucr@@ 5
marc@@ 5
mbo@@ 5
micha@@ 5
muri@@ 5
mé@@ 5
ocur@@ 5
odi@@ 5
org@@ 5
pas 5
peli@@ 5
pred@@ 5
prome@@ 5
quin@@ 5
retir@@ 5
ros 5
sar 5
smit@@ 5
sores 5
strateg@@ 5
terior 5
tidi@@ 5
tranqui@@ 5
tsun@@ 5
xi 5
á@@ 5
acia 4
aran 4
atas 4
bas 4
bir 4
bro 4
bros 4
bueno 4
carne 4
carre@@ 4
carta 4
cay@@ 4
cero 4
cio 4
cole@@ 4
comer 4
complex@@ 4
control@@ 4
cos 4
demon@@ 4
deo 4
disci@@ 4
dn 4
econ@@ 4
ecos@@ 4
eder 4
ente 4
equivoc@@ 4
eta 4
etique@@ 4
every@@ 4
ext@@ 4
extin@@ 4
extremad@@ 4
fore 4
gesti@@ 4
grande 4
happen@@ 4
igu@@ 4
imo 4
infanti@@ 4
inste@@ 4
itos 4
job@@ 4
llas 4
mens@@ 4
mica 4
mira 4
movi@@ 4
muj@@ 4
oras 4
pant@@ 4
permi@@ 4
pez 4
princi@@ 4
puede 4
queri@@ 4
ras 4
recu@@ 4
reflexi@@ 4
segu@@ 4
selec@@ 4
sos 4
sur 4
sé 4
sí 4
tener 4
tir 4
ugan@@ 4
uti@@ 4
vez 4
viron@@ 4
vista 4
vistas 4
án@@ 4
ê@@ 4
ín 4
อ@@ 4
* 3
absolu@@ 3
aca 3
acab@@ 3
acep@@ 3
aje 3
algo 3
alla 3
amar@@ 3
amo 3
anese 3
arma 3
atura 3
baja 3
bey@@ 3
bibli@@ 3
califor@@ 3
cic@@ 3
clic 3
contra 3
coul@@ 3
cura 3
davi@@ 3
dej@@ 3
dices 3
dici@@ 3
dinosa@@ 3
dio 3
edia 3
ellas 3
embargo 3
encar@@ 3
encu@@ 3
ership 3
estar 3
estos 3
estu@@ 3
etc. 3
fabr@@ 3
familia 3
fica 3
fuego 3
gado 3
genial 3
haps 3
heri@@ 3
herman@@ 3
identific@@ 3
ince 3
infect@@ 3
infra@@ 3
mover 3
má@@ 3
naci@@ 3
nada 3
opport@@ 3
oro 3
pais@@ 3
paz 3
peop@@ 3
perci@@ 3
pero 3
plaz@@ 3
pon 3
ponen 3
protot@@ 3
recol@@ 3
regr@@ 3
regres@@ 3
saber 3
siti@@ 3
su 3
tierra 3
ulti@@ 3
yester@@ 3
zan 3
 3
 3
à 3
â 3
ér@@ 3
és 3
í@@ 3
adas 2
adora 2
ados 2
again@@ 2
ajo 2
alem@@ 2
amar 2
antes 2
antigua 2
anto 2
apl@@ 2
arre@@ 2
arriba 2
asun@@ 2
betwe@@ 2
bido 2
busti@@ 2
cama 2
campo 2
cara 2
cier@@ 2
cine 2
cion@@ 2
cionado 2
clave 2
copia 2
corporal 2
cosa 2
dij@@ 2
dijo 2
eas 2
ellos 2
emos 2
entre@@ 2
entu@@ 2
eran 2
esas 2
esco@@ 2
extran@@ 2
favori@@ 2
flot@@ 2
forma 2
gami 2
gran 2
hor 2
ico 2
ida 2
imos 2
indivi@@ 2
istas 2
iste 2
lica 2
llama 2
loco 2
luna 2
mala 2
marina 2
mbre 2
mil 2
miro 2
molecu@@ 2
natural@@ 2
olu@@ 2
oportunidades 2
osos 2
pared 2
personas 2
pheno@@ 2
philo@@ 2
plano 2
pod@@ 2
pudi@@ 2
puente 2
regal@@ 2
relation@@ 2
rote 2
sado 2
softw@@ 2
sue@@ 2
tigo 2
toc@@ 2
toge@@ 2
té 2
u. 2
valor 2
veh@@ 2
venes 2
venir 2
ventana 2
verde 2
vini@@ 2
vio 2
vivo 2
voy 2
£ 2
² 2
è 2
éli@@ 2
éxi@@ 2
ø@@ 2
ā@@ 2
ร 2
่ 2
.000 1
\ 1
adores 1
afghan@@ 1
ahor@@ 1
alde@@ 1
amor 1
anzas 1
aso 1
atoria 1
atrav@@ 1
aut@@ 1
avan@@ 1
azar 1
azu@@ 1
bacterias 1
baj@@ 1
bast@@ 1
beb@@ 1
bibliotec@@ 1
bios 1
bosqu@@ 1
brasi@@ 1
cabo 1
café 1
caro 1
carrera 1
cera 1
cerr@@ 1
chall@@ 1
chino 1
chos 1
cielo 1
ciles 1
ciudad 1
clara 1
combustible 1
comport@@ 1
corte@@ 1
crea 1
culo 1
cár@@ 1
dese@@ 1
dibu@@ 1
dida 1
does@@ 1
donde 1
doy 1
dó@@ 1
eci@@ 1
emas 1
empres@@ 1
ensa@@ 1
enton@@ 1
entor@@ 1
entos 1
entro 1
erto 1
escen@@ 1
esos 1
esqu@@ 1
ext 1
extremo 1
eza 1
faci@@ 1
fiesta 1
flores 1
genera 1
gina 1
gro 1
haber 1
hardw@@ 1
heimer 1
hig@@ 1
hijo 1
há@@ 1
ido 1
impact@@ 1
incredi@@ 1
ingl@@ 1
instein 1
instituto 1
inte@@ 1
isla 1
jap@@ 1
jos 1
lista 1
llam@@ 1
llos 1
luz 1
lá@@ 1
manhatt@@ 1
mathematic@@ 1
menes 1
mesa 1
meta 1
mide 1
mise 1
modo 1
molec@@ 1
morrow 1
mundi@@ 1
mí 1
mí@@ 1
negro 1
nivel@@ 1
niño 1
obvi@@ 1
omas 1
ood 1
particular@@ 1
paso 1
peci@@ 1
peso 1
pico 1
placer 1
porta 1
potenci@@ 1
presi@@ 1
pueblo 1
responder 1
result@@ 1
reun@@ 1
salvo 1
señor 1
sibili@@ 1
siva 1
sto 1
sí@@ 1
só@@ 1
taba 1
tada 1
tas 1
toda@@ 1
tora 1
tres 1
trum 1
tura 1
ugh@@ 1
universit@@ 1
usan 1
usd 1
vale 1
vec@@ 1
xx 1
â@@ 1
ë@@ 1
ía 1
ís 1
ï@@ 1
ño 1
ón@@ 1
ór@@ 1
ô@@ 1
ú@@ 1
ă@@ 1
ć 1
ē 1
ť 1
˚ 1
ย 1
ย@@ 1
€ 1
你@@ 1
葱 1
送@@ 1
madeupword0000 0
madeupword0001 0
madeupword0002 0
madeupword0003 0
madeupword0004 0
madeupword0005 0
